{
  "version": "1.0",
  "truncation": null,
  "padding": null,
  "added_tokens": [
    {
      "id": 0,
      "content": "<|pad|>",
      "single_word": false,
      "lstrip": false,
      "rstrip": false,
      "normalized": false,
      "special": true
    },
    {
      "id": 1,
      "content": "<|bos|>",
      "single_word": false,
      "lstrip": false,
      "rstrip": false,
      "normalized": false,
      "special": true
    },
    {
      "id": 2,
      "content": "<|eos|>",
      "single_word": false,
      "lstrip": false,
      "rstrip": false,
      "normalized": false,
      "special": true
    },
    {
      "id": 3,
      "content": "<|endofdoc|>",
      "single_word": false,
      "lstrip": false,
      "rstrip": false,
      "normalized": false,
      "special": true
    },
    {
      "id": 4,
      "content": "<|user|>",
      "single_word": false,
      "lstrip": false,
      "rstrip": false,
      "normalized": false,
      "special": true
    },
    {
      "id": 5,
      "content": "<|assistant|>",
      "single_word": false,
      "lstrip": false,
      "rstrip": false,
      "normalized": false,
      "special": true
    }
  ],
  "normalizer": null,
  "pre_tokenizer": {
    "type": "ByteLevel",
    "add_prefix_space": false,
    "trim_offsets": true,
    "use_regex": true
  },
  "post_processor": null,
  "decoder": {
    "type": "ByteLevel",
    "add_prefix_space": true,
    "trim_offsets": true,
    "use_regex": true
  },
  "model": {
    "type": "BPE",
    "dropout": null,
    "unk_token": null,
    "continuing_subword_prefix": null,
    "end_of_word_suffix": null,
    "fuse_unk": false,
    "byte_fallback": false,
    "ignore_merges": false,
    "vocab": {
      "<|pad|>": 0,
      "<|bos|>": 1,
      "<|eos|>": 2,
      "<|endofdoc|>": 3,
      "<|user|>": 4,
      "<|assistant|>": 5,
      "!": 6,
      "\"": 7,
      "#": 8,
      "$": 9,
      "%": 10,
      "&": 11,
      "'": 12,
      "(": 13,
      ")": 14,
      "*": 15,
      "+": 16,
      ",": 17,
      "-": 18,
      ".": 19,
      "/": 20,
      "0": 21,
      "1": 22,
      "2": 23,
      "3": 24,
      "4": 25,
      "5": 26,
      "6": 27,
      "7": 28,
      "8": 29,
      "9": 30,
      ":": 31,
      ";": 32,
      "<": 33,
      "=": 34,
      ">": 35,
      "?": 36,
      "@": 37,
      "A": 38,
      "B": 39,
      "C": 40,
      "D": 41,
      "E": 42,
      "F": 43,
      "G": 44,
      "H": 45,
      "I": 46,
      "J": 47,
      "K": 48,
      "L": 49,
      "M": 50,
      "N": 51,
      "O": 52,
      "P": 53,
      "Q": 54,
      "R": 55,
      "S": 56,
      "T": 57,
      "U": 58,
      "V": 59,
      "W": 60,
      "X": 61,
      "Y": 62,
      "Z": 63,
      "[": 64,
      "\\": 65,
      "]": 66,
      "^": 67,
      "_": 68,
      "`": 69,
      "a": 70,
      "b": 71,
      "c": 72,
      "d": 73,
      "e": 74,
      "f": 75,
      "g": 76,
      "h": 77,
      "i": 78,
      "j": 79,
      "k": 80,
      "l": 81,
      "m": 82,
      "n": 83,
      "o": 84,
      "p": 85,
      "q": 86,
      "r": 87,
      "s": 88,
      "t": 89,
      "u": 90,
      "v": 91,
      "w": 92,
      "x": 93,
      "y": 94,
      "z": 95,
      "{": 96,
      "|": 97,
      "}": 98,
      "~": 99,
      "¡": 100,
      "¢": 101,
      "£": 102,
      "¤": 103,
      "¥": 104,
      "¦": 105,
      "§": 106,
      "¨": 107,
      "©": 108,
      "ª": 109,
      "«": 110,
      "¬": 111,
      "®": 112,
      "¯": 113,
      "°": 114,
      "±": 115,
      "²": 116,
      "³": 117,
      "´": 118,
      "µ": 119,
      "¶": 120,
      "·": 121,
      "¸": 122,
      "¹": 123,
      "º": 124,
      "»": 125,
      "¼": 126,
      "½": 127,
      "¾": 128,
      "¿": 129,
      "À": 130,
      "Á": 131,
      "Â": 132,
      "Ã": 133,
      "Ä": 134,
      "Å": 135,
      "Æ": 136,
      "Ç": 137,
      "È": 138,
      "É": 139,
      "Ê": 140,
      "Ë": 141,
      "Ì": 142,
      "Í": 143,
      "Î": 144,
      "Ï": 145,
      "Ð": 146,
      "Ñ": 147,
      "Ò": 148,
      "Ó": 149,
      "Ô": 150,
      "Õ": 151,
      "Ö": 152,
      "×": 153,
      "Ø": 154,
      "Ù": 155,
      "Ú": 156,
      "Û": 157,
      "Ü": 158,
      "Ý": 159,
      "Þ": 160,
      "ß": 161,
      "à": 162,
      "á": 163,
      "â": 164,
      "ã": 165,
      "ä": 166,
      "å": 167,
      "æ": 168,
      "ç": 169,
      "è": 170,
      "é": 171,
      "ê": 172,
      "ë": 173,
      "ì": 174,
      "í": 175,
      "î": 176,
      "ï": 177,
      "ð": 178,
      "ñ": 179,
      "ò": 180,
      "ó": 181,
      "ô": 182,
      "õ": 183,
      "ö": 184,
      "÷": 185,
      "ø": 186,
      "ù": 187,
      "ú": 188,
      "û": 189,
      "ü": 190,
      "ý": 191,
      "þ": 192,
      "ÿ": 193,
      "Ā": 194,
      "ā": 195,
      "Ă": 196,
      "ă": 197,
      "Ą": 198,
      "ą": 199,
      "Ć": 200,
      "ć": 201,
      "Ĉ": 202,
      "ĉ": 203,
      "Ċ": 204,
      "ċ": 205,
      "Č": 206,
      "č": 207,
      "Ď": 208,
      "ď": 209,
      "Đ": 210,
      "đ": 211,
      "Ē": 212,
      "ē": 213,
      "Ĕ": 214,
      "ĕ": 215,
      "Ė": 216,
      "ė": 217,
      "Ę": 218,
      "ę": 219,
      "Ě": 220,
      "ě": 221,
      "Ĝ": 222,
      "ĝ": 223,
      "Ğ": 224,
      "ğ": 225,
      "Ġ": 226,
      "ġ": 227,
      "Ģ": 228,
      "ģ": 229,
      "Ĥ": 230,
      "ĥ": 231,
      "Ħ": 232,
      "ħ": 233,
      "Ĩ": 234,
      "ĩ": 235,
      "Ī": 236,
      "ī": 237,
      "Ĭ": 238,
      "ĭ": 239,
      "Į": 240,
      "į": 241,
      "İ": 242,
      "ı": 243,
      "Ĳ": 244,
      "ĳ": 245,
      "Ĵ": 246,
      "ĵ": 247,
      "Ķ": 248,
      "ķ": 249,
      "ĸ": 250,
      "Ĺ": 251,
      "ĺ": 252,
      "Ļ": 253,
      "ļ": 254,
      "Ľ": 255,
      "ľ": 256,
      "Ŀ": 257,
      "ŀ": 258,
      "Ł": 259,
      "ł": 260,
      "Ń": 261,
      "ĠĠ": 262,
      "Ġt": 263,
      "Ġa": 264,
      "er": 265,
      "in": 266,
      "he": 267,
      "re": 268,
      "is": 269,
      "Ġthe": 270,
      "Ġs": 271,
      "on": 272,
      "Ġ=": 273,
      "ĊĠĠ": 274,
      "al": 275,
      "Ġc": 276,
      "or": 277,
      "Ġf": 278,
      "an": 279,
      "at": 280,
      "es": 281,
      "ĊĠĠĠ": 282,
      "Ġp": 283,
      "en": 284,
      "ou": 285,
      "Ġ1": 286,
      "it": 287,
      "Ġd": 288,
      "Ġ(": 289,
      "Ġâ": 290,
      "Ġ-": 291,
      "Ġl": 292,
      "ct": 293,
      "as": 294,
      "Ġan": 295,
      "Ġx": 296,
      "ing": 297,
      "ro": 298,
      "Ġre": 299,
      "Ġis": 300,
      "us": 301,
      "ot": 302,
      "ed": 303,
      "Ġw": 304,
      "Ġ2": 305,
      "um": 306,
      "Ġin": 307,
      "Ġb": 308,
      "Ġo": 309,
      "<|": 310,
      "|>": 311,
      "ar": 312,
      "Ġm": 313,
      "Ġn": 314,
      "ion": 315,
      "Ġr": 316,
      "le": 317,
      "Ġof": 318,
      "ist": 319,
      ">>": 320,
      "Ġand": 321,
      "ol": 322,
      "act": 323,
      "ĊĠ": 324,
      "``": 325,
      "Ġg": 326,
      "ĠĠĠĠ": 327,
      "el": 328,
      "Ġ'": 329,
      "om": 330,
      "Ġh": 331,
      "Ġ3": 332,
      "ĠâĨ": 333,
      "ass": 334,
      "th": 335,
      "ĠI": 336,
      "Ġ[": 337,
      "ic": 338,
      "id": 339,
      "\"\"": 340,
      "nt": 341,
      "ĠâĪ": 342,
      "ant": 343,
      "Ġ4": 344,
      "st": 345,
      "Ġfor": 346,
      "ĠA": 347,
      "ur": 348,
      "ĠT": 349,
      "od": 350,
      "ord": 351,
      "Ġe": 352,
      "ul": 353,
      "Ġq": 354,
      "ow": 355,
      "ss": 356,
      "og": 357,
      "ap": 358,
      "ad": 359,
      "Ġy": 360,
      "Ġto": 361,
      "user": 362,
      "istant": 363,
      "assistant": 364,
      "Ġyou": 365,
      "ĠâĨĴ": 366,
      "rom": 367,
      "un": 368,
      "ent": 369,
      "Ġ--": 370,
      "ĠE": 371,
      "Ġ+": 372,
      "Ġst": 373,
      "iv": 374,
      "ĠF": 375,
      "otal": 376,
      "se": 377,
      "ll": 378,
      "ig": 379,
      "ut": 380,
      "et": 381,
      "Ġfact": 382,
      "ay": 383,
      "ĊĠĠĠĠĠĠ": 384,
      "ce": 385,
      "Ġit": 386,
      "ĠâĪ§": 387,
      "Ġ>>": 388,
      "Ġ>>>": 389,
      "am": 390,
      "):": 391,
      "est": 392,
      "up": 393,
      "ly": 394,
      "Ġ5": 395,
      "ep": 396,
      "Ġ6": 397,
      "Ġth": 398,
      "```": 399,
      "Ġ0": 400,
      "omp": 401,
      "eg": 402,
      "ine": 403,
      "Ġk": 404,
      "ir": 405,
      "ate": 406,
      "Ġres": 407,
      "ue": 408,
      "ac": 409,
      "ver": 410,
      "ĠC": 411,
      "urn": 412,
      "ation": 413,
      "Ġfrom": 414,
      "ef": 415,
      "ĠS": 416,
      "Ġass": 417,
      "ser": 418,
      "ĠP": 419,
      "ĠB": 420,
      "turn": 421,
      "ht": 422,
      "Ġ8": 423,
      "Ġ\"\"": 424,
      "Ġ\"\"\"": 425,
      "rem": 426,
      "Ġby": 427,
      "ith": 428,
      "im": 429,
      "Ġreturn": 430,
      "remis": 431,
      "ĊĠĠĠĠĠĠĠ": 432,
      "Int": 433,
      "Ġmod": 434,
      "Ġleg": 435,
      "Ġcon": 436,
      "Ġon": 437,
      "Ġ/": 438,
      "Ġhas": 439,
      "'s": 440,
      "Â¬": 441,
      "Ġlegs": 442,
      "Ġ7": 443,
      "serv": 444,
      "Ġpl": 445,
      "now": 446,
      "Ġ|": 447,
      "ult": 448,
      "Ġresult": 449,
      "elf": 450,
      "ount": 451,
      "ok": 452,
      "Ġ9": 453,
      "val": 454,
      "Ġtr": 455,
      "ab": 456,
      "and": 457,
      "wer": 458,
      "nd": 459,
      "qu": 460,
      "pl": 461,
      "'ll": 462,
      "bserv": 463,
      "swer": 464,
      "Ġanswer": 465,
      "omput": 466,
      "Ġsum": 467,
      "Ġnot": 468,
      "total": 469,
      "Ġday": 470,
      "ag": 471,
      "hou": 472,
      "ers": 473,
      "ead": 474,
      "ĠÂ¬": 475,
      "ĊĊĠĠĠ": 476,
      "if": 477,
      "Fin": 478,
      "eog": 479,
      "rap": 480,
      "eograp": 481,
      "eograph": 482,
      "uct": 483,
      "ec": 484,
      "Ġassum": 485,
      "ang": 486,
      "Ġpro": 487,
      "Ġtotal": 488,
      "Ġwith": 489,
      "Ġknow": 490,
      "Ġun": 491,
      "ook": 492,
      "Fact": 493,
      "remise": 494,
      "Ġ10": 495,
      "iol": 496,
      "py": 497,
      "ve": 498,
      "Final": 499,
      "iolog": 500,
      "Ġus": 501,
      "',": 502,
      "Ġwh": 503,
      "ookup": 504,
      "ĠThe": 505,
      "ort": 506,
      "end": 507,
      "Ġline": 508,
      "ums": 509,
      "thon": 510,
      "eng": 511,
      "are": 512,
      "ĠD": 513,
      "Ġ{": 514,
      "ies": 515,
      "ght": 516,
      "Biolog": 517,
      "ke": 518,
      "python": 519,
      "Ġgeograph": 520,
      "Biology": 521,
      "Ġgeography": 522,
      "order": 523,
      "her": 524,
      "Not": 525,
      "Note": 526,
      "erm": 527,
      "Ġhe": 528,
      "erest": 529,
      "ase": 530,
      "Interest": 531,
      "Interesting": 532,
      "Did": 533,
      "Observ": 534,
      "Thou": 535,
      "Observation": 536,
      "Thought": 537,
      "uction": 538,
      "Ġas": 539,
      "Ġ((": 540,
      "ment": 541,
      "ite": 542,
      "ues": 543,
      "xam": 544,
      "))": 545,
      "ength": 546,
      ").": 547,
      "])": 548,
      "Ġorder": 549,
      "Ġare": 550,
      "cord": 551,
      "('": 552,
      "ĠâĨĶ": 553,
      "ĠâĪ¨": 554,
      "ia": 555,
      "ain": 556,
      "all": 557,
      "=>": 558,
      "Ġne": 559,
      "Ġdo": 560,
      "Ġform": 561,
      "')": 562,
      "ples": 563,
      "xamples": 564,
      "of": 565,
      "il": 566,
      "ĠExamples": 567,
      "irst": 568,
      "ch": 569,
      "Ġlookup": 570,
      "Ġterm": 571,
      "values": 572,
      "ital": 573,
      "out": 574,
      "ach": 575,
      "self": 576,
      "Ġ11": 577,
      "ence": 578,
      "ri": 579,
      "very": 580,
      "apital": 581,
      "ome": 582,
      "Ġstep": 583,
      "pt": 584,
      "Ġits": 585,
      "ompute": 586,
      "Ġgo": 587,
      "ĠM": 588,
      "Ġcapital": 589,
      "ress": 590,
      "Ġch": 591,
      "Ġformul": 592,
      "Ġcol": 593,
      "art": 594,
      "Ġthat": 595,
      "pe": 596,
      "Premise": 597,
      "Ġinst": 598,
      "der": 599,
      "line": 600,
      "ĠN": 601,
      "def": 602,
      "'t": 603,
      "ard": 604,
      "eadline": 605,
      "duction": 606,
      "roduction": 607,
      "ĠĠĠĠĠ": 608,
      "Ġha": 609,
      "ck": 610,
      "ign": 611,
      "ance": 612,
      "Ġtool": 613,
      "']": 614,
      "Ġsc": 615,
      ")=": 616,
      "Ġword": 617,
      "atus": 618,
      "Ġstatus": 619,
      "row": 620,
      "gress": 621,
      "Ġ*": 622,
      "ĠQ": 623,
      "ĢĶ": 624,
      "ĠâĢĶ": 625,
      "Ġassume": 626,
      "ĊĠĠĠĠĠĠĠĠĠĠĠ": 627,
      "cl": 628,
      "Ġ12": 629,
      "Ġup": 630,
      "([": 631,
      "Ġ->": 632,
      "ess": 633,
      "age": 634,
      "fer": 635,
      "Ġlist": 636,
      "Ġar": 637,
      "ack": 638,
      "The": 639,
      "cy": 640,
      "ally": 641,
      "ically": 642,
      "engths": 643,
      "ight": 644,
      "Ġformula": 645,
      "ish": 646,
      "Ġso": 647,
      "Ġif": 648,
      "Ġme": 649,
      "ey": 650,
      "Ġex": 651,
      "Ġab": 652,
      "ive": 653,
      "Ġqu": 654,
      "ĠG": 655,
      "Ġevery": 656,
      "Ġse": 657,
      "ial": 658,
      "Ġcan": 659,
      "ble": 660,
      "ile": 661,
      "ide": 662,
      "Ġself": 663,
      "Introduction": 664,
      "Ġrun": 665,
      "10": 666,
      "nums": 667,
      "ĠU": 668,
      "ĠL": 669,
      "Ġrat": 670,
      "Ġcod": 671,
      "Ġcode": 672,
      "oth": 673,
      "ren": 674,
      "Ġsp": 675,
      "heck": 676,
      "Ġi": 677,
      "ra": 678,
      "ork": 679,
      "rou": 680,
      "ere": 681,
      "Ġdef": 682,
      "..": 683,
      "And": 684,
      "ld": 685,
      "port": 686,
      "lp": 687,
      "Ġhelp": 688,
      "ption": 689,
      "land": 690,
      "iz": 691,
      "ub": 692,
      "alse": 693,
      "umn": 694,
      "Ġcolumn": 695,
      "Ġcl": 696,
      "als": 697,
      "St": 698,
      "ated": 699,
      "Ġma": 700,
      "Ġcount": 701,
      "ound": 702,
      "Ġthan": 703,
      "ry": 704,
      "Ġrather": 705,
      "Ġv": 706,
      "ex": 707,
      "['": 708,
      "urren": 709,
      "from": 710,
      "Ġusing": 711,
      "Ġrecord": 712,
      "Compute": 713,
      "ning": 714,
      "Ġpo": 715,
      "ĠW": 716,
      "Ġpi": 717,
      "Ġfirst": 718,
      "Ġproof": 719,
      "Ġassumption": 720,
      "Ġal": 721,
      "ind": 722,
      "Ġwr": 723,
      "Sol": 724,
      "deadline": 725,
      "Ġdue": 726,
      "int": 727,
      "Ġco": 728,
      "ta": 729,
      "urrency": 730,
      "umb": 731,
      "ore": 732,
      "Ġcomp": 733,
      "Ġdep": 734,
      "Ġdepend": 735,
      "Ġhave": 736,
      "aus": 737,
      "Ġunder": 738,
      "Ġbe": 739,
      "Ġpremis": 740,
      "Ġpremises": 741,
      "ference": 742,
      "Ġsome": 743,
      "hat": 744,
      "Ġsh": 745,
      "one": 746,
      "Ġwhat": 747,
      "cts": 748,
      "Step": 749,
      "ans": 750,
      "Ġnumb": 751,
      "ma": 752,
      "20": 753,
      "ft": 754,
      "Ġcurrency": 755,
      "fic": 756,
      "ure": 757,
      "arg": 758,
      "Ġgiv": 759,
      "Ġmy": 760,
      "ric": 761,
      "Ġcar": 762,
      "':": 763,
      "ong": 764,
      "list": 765,
      "Ġreport": 766,
      "quare": 767,
      "Ġall": 768,
      "ĠR": 769,
      "Ġplan": 770,
      "ĠEu": 771,
      "12": 772,
      "ask": 773,
      "Ġabout": 774,
      "ew": 775,
      "Ġot": 776,
      "Ġother": 777,
      "Ġeach": 778,
      "ms": 779,
      "clus": 780,
      "],": 781,
      "Ġ16": 782,
      "Ġnums": 783,
      "lands": 784,
      "pi": 785,
      "Ġ15": 786,
      "app": 787,
      "Ġclass": 788,
      "ĠY": 789,
      "ES": 790,
      "ĠEN": 791,
      "ĠFR": 792,
      "clusion": 793,
      "ens": 794,
      "ill": 795,
      "ition": 796,
      "Ġcont": 797,
      "~=": 798,
      "Ġ~=": 799,
      "ich": 800,
      "Ġwhich": 801,
      "ake": 802,
      "ĠEuro": 803,
      "Ġtask": 804,
      "ĠIn": 805,
      "Ġpre": 806,
      "record": 807,
      "roup": 808,
      "Ġcarry": 809,
      "Ġinse": 810,
      "Ġassign": 811,
      "cc": 812,
      "ff": 813,
      "ful": 814,
      "ike": 815,
      "ounts": 816,
      "Ġinstance": 817,
      "omm": 818,
      "11": 819,
      "Ġat": 820,
      "ele": 821,
      "Ġarr": 822,
      "Ġ14": 823,
      "Ġest": 824,
      "Ġtrue": 825,
      "Ġright": 826,
      "Ġinstead": 827,
      "Ġsm": 828,
      "Ġover": 829,
      "Ġrow": 830,
      "Ġrang": 831,
      "ithm": 832,
      "Solve": 833,
      "Ġboth": 834,
      "Ġno": 835,
      "Ġfl": 836,
      "Ġ13": 837,
      "Ġtheir": 838,
      "ule": 839,
      "date": 840,
      "ĠFor": 841,
      "Ġbut": 842,
      "Ġwrite": 843,
      "Ġplay": 844,
      "ffe": 845,
      "ient": 846,
      "ĠV": 847,
      "lease": 848,
      "uage": 849,
      "Ġconclusion": 850,
      "anguage": 851,
      "ating": 852,
      "oll": 853,
      "Ġsmall": 854,
      "Ġnow": 855,
      "Ġyour": 856,
      "Ġsquare": 857,
      "Ġfre": 858,
      "Ġone": 859,
      "ple": 860,
      "append": 861,
      "ĠK": 862,
      "ug": 863,
      "Ġplant": 864,
      "Ġwords": 865,
      "Ġanim": 866,
      "Ġanimals": 867,
      "eds": 868,
      "Ġ18": 869,
      "Ġtasks": 870,
      "Ġor": 871,
      "Ġval": 872,
      "Ġprogress": 873,
      "ments": 874,
      "vi": 875,
      "Ġap": 876,
      "NT": 877,
      "ring": 878,
      "ci": 879,
      "Ġpar": 880,
      "Ġwon": 881,
      "What": 882,
      "Ġlanguage": 883,
      "vel": 884,
      "sia": 885,
      "lengths": 886,
      "Ġpremise": 887,
      "ouble": 888,
      "Ġdouble": 889,
      "Ġlengths": 890,
      "Ġobserv": 891,
      "Ġ['": 892,
      "Ġobserved": 893,
      "pare": 894,
      "'m": 895,
      "Ġ19": 896,
      "raft": 897,
      "Ġchar": 898,
      "ats": 899,
      "Ġthem": 900,
      "ust": 901,
      "00": 902,
      "Ġthese": 903,
      "ogs": 904,
      "Ġcomm": 905,
      "Ġdiv": 906,
      "Ġnew": 907,
      "Ġfalse": 908,
      "Ġarea": 909,
      "15": 910,
      "po": 911,
      "word": 912,
      "ail": 913,
      "igit": 914,
      "__": 915,
      "Ġ[]": 916,
      "Ġsquares": 917,
      "Ġrunning": 918,
      "rim": 919,
      "counts": 920,
      "Ġlen": 921,
      "Ġwid": 922,
      "Ġwidth": 923,
      "Are": 924,
      "Area": 925,
      "Ġper": 926,
      "ĠJ": 927,
      "Check": 928,
      "irc": 929,
      "Ġwill": 930,
      "rass": 931,
      "orit": 932,
      "Ġpri": 933,
      "Ġpriorit": 934,
      "()": 935,
      "Ġsec": 936,
      "ould": 937,
      "Ġgroup": 938,
      "'].": 939,
      "Ġgives": 940,
      "Ġinsects": 941,
      "Ġ(-": 942,
      "ery": 943,
      "Ġder": 944,
      "Ġcheck": 945,
      "Ġ17": 946,
      "Ġ20": 947,
      "ace": 948,
      "Ġ..": 949,
      "Ġdis": 950,
      "Ġ...": 951,
      "els": 952,
      "Ġplants": 953,
      "ru": 954,
      "ark": 955,
      "Ġmain": 956,
      "ĠIf": 957,
      "Ġhab": 958,
      "Ġhabit": 959,
      "].": 960,
      "sum": 961,
      "Ġcompute": 962,
      "atur": 963,
      "atural": 964,
      "ize": 965,
      "pro": 966,
      "Ġthis": 967,
      "oint": 968,
      "kes": 969,
      "lookup": 970,
      "Ġreturns": 971,
      "Ġquery": 972,
      "ĠUse": 973,
      "comput": 974,
      "ĠX": 975,
      "iet": 976,
      "Ġ24": 977,
      "digit": 978,
      "Ġkey": 979,
      "ĠYou": 980,
      "computed": 981,
      "ud": 982,
      "hould": 983,
      "view": 984,
      "ates": 985,
      "atri": 986,
      "atrix": 987,
      "Ġdat": 988,
      "Ġsteps": 989,
      "fact": 990,
      "Ġlogs": 991,
      "Ġupdate": 992,
      "hed": 993,
      "ier": 994,
      "Ġsub": 995,
      "Ġwould": 996,
      "Ġplayers": 997,
      "Ġcare": 998,
      "fully": 999,
      "Ġcarefully": 1000,
      "ĠSp": 1001,
      "Ġprod": 1002,
      "te": 1003,
      "Ġgrass": 1004,
      "iq": 1005,
      "items": 1006,
      "ĠO": 1007,
      "Ġ30": 1008,
      "Er": 1009,
      "ror": 1010,
      "Ġfi": 1011,
      "eyEr": 1012,
      "eyError": 1013,
      "em": 1014,
      "Ġ25": 1015,
      "Ġspec": 1016,
      "pre": 1017,
      "ving": 1018,
      "Ġhaving": 1019,
      "ood": 1020,
      "Ġplace": 1021,
      "Ġdivide": 1022,
      "Ġsched": 1023,
      "know": 1024,
      "Ġ28": 1025,
      "unknow": 1026,
      "Ġterms": 1027,
      "unknown": 1028,
      "13": 1029,
      "ecaus": 1030,
      "ecause": 1031,
      "Ġget": 1032,
      "Ġla": 1033,
      "eep": 1034,
      "Ġresid": 1035,
      "del": 1036,
      "mb": 1037,
      "Ġdependen": 1038,
      "Ġdeadline": 1039,
      "Ġdoc": 1040,
      "Ġu": 1041,
      "Ġrest": 1042,
      "ter": 1043,
      "ĠCount": 1044,
      "inent": 1045,
      "Ġser": 1046,
      "ĠH": 1047,
      "Ġcharact": 1048,
      "own": 1049,
      "Ġtrust": 1050,
      "Ġequ": 1051,
      "ĠPoint": 1052,
      "lier": 1053,
      "arlier": 1054,
      "ĠFalse": 1055,
      "Ġthen": 1056,
      "Ġfreq": 1057,
      "the": 1058,
      "odus": 1059,
      "ext": 1060,
      "ph": 1061,
      "Ġback": 1062,
      "Ġfail": 1063,
      "Ġmodel": 1064,
      "ds": 1065,
      "ument": 1066,
      "Ġfe": 1067,
      "16": 1068,
      "Ġnumbers": 1069,
      "plies": 1070,
      "owels": 1071,
      "14": 1072,
      "Ġderiv": 1073,
      "bon": 1074,
      "reat": 1075,
      "rab": 1076,
      "sort": 1077,
      "should": 1078,
      "Ġsid": 1079,
      "Ġisol": 1080,
      "effic": 1081,
      "Ġcoeffic": 1082,
      "Ġequal": 1083,
      "Ġsides": 1084,
      "Ġisolate": 1085,
      "Ġcoefficient": 1086,
      "Ġmakes": 1087,
      "ĠEurope": 1088,
      "17": 1089,
      "xt": 1090,
      "Ġnext": 1091,
      "etic": 1092,
      "ithmetic": 1093,
      "able": 1094,
      "ak": 1095,
      "Ġ27": 1096,
      "ĠÂ¬(": 1097,
      "Ġfore": 1098,
      "Ġforest": 1099,
      "old": 1100,
      "Ġrange": 1101,
      "Ġuse": 1102,
      "eographically": 1103,
      "Ġnumber": 1104,
      "Ġdepending": 1105,
      "Ġspecies": 1106,
      "yp": 1107,
      "Ġout": 1108,
      "Ġj": 1109,
      "Ġoffic": 1110,
      "Ġofficial": 1111,
      "ick": 1112,
      "Work": 1113,
      "dition": 1114,
      "Ġdes": 1115,
      "Worked": 1116,
      "Ġread": 1117,
      "Ġcontinent": 1118,
      "19": 1119,
      "ward": 1120,
      "ative": 1121,
      "uted": 1122,
      "Ġtyp": 1123,
      "Ġ==": 1124,
      "acci": 1125,
      "bonacci": 1126,
      "Ġtypically": 1127,
      "ret": 1128,
      "arch": 1129,
      "Ġthey": 1130,
      "Ġcase": 1131,
      "Ġgrasslands": 1132,
      "Ġforests": 1133,
      "Ġclassif": 1134,
      "ling": 1135,
      "Ġle": 1136,
      "Ġfind": 1137,
      "Ġuna": 1138,
      "ica": 1139,
      "Ġacc": 1140,
      "ond": 1141,
      "oken": 1142,
      "Ġmemb": 1143,
      "Ġspoken": 1144,
      "Ġmembers": 1145,
      "thing": 1146,
      "erly": 1147,
      "arterly": 1148,
      "Ġquarterly": 1149,
      "ĠAsia": 1150,
      "Ġel": 1151,
      "rue": 1152,
      "Ġassignment": 1153,
      "Ġ22": 1154,
      "ari": 1155,
      "arding": 1156,
      "Ġparser": 1157,
      "factor": 1158,
      "Ġfound": 1159,
      "ady": 1160,
      "ines": 1161,
      "Ġcor": 1162,
      "18": 1163,
      "Ġkeep": 1164,
      "ely": 1165,
      "Ġint": 1166,
      "}:": 1167,
      "Ġele": 1168,
      "Ġcharacter": 1169,
      "anish": 1170,
      "os": 1171,
      "Ġcle": 1172,
      "Ġdx": 1173,
      "Ġdy": 1174,
      "Ġheight": 1175,
      "angle": 1176,
      "Ġany": 1177,
      "Ġlength": 1178,
      "eter": 1179,
      "imeter": 1180,
      "Ġrule": 1181,
      "Ġcirc": 1182,
      "umference": 1183,
      "99": 1184,
      "anning": 1185,
      "ip": 1186,
      "mark": 1187,
      "Ġwork": 1188,
      "Ġdesign": 1189,
      "How": 1190,
      "Ġhand": 1191,
      "bo": 1192,
      "uide": 1193,
      "Ġguide": 1194,
      "Ġonbo": 1195,
      "Ġonboarding": 1196,
      "Ġ23": 1197,
      "Ġball": 1198,
      "Ġwhile": 1199,
      "uite": 1200,
      "Ġsuite": 1201,
      "Ġregress": 1202,
      "Ġregression": 1203,
      "Ġ40": 1204,
      "Ġrelease": 1205,
      "ĠAm": 1206,
      "Ġnotes": 1207,
      "rate": 1208,
      "igrate": 1209,
      "abase": 1210,
      "Ġdatabase": 1211,
      "uate": 1212,
      "ssess": 1213,
      "Ġpossess": 1214,
      "Ġpossesses": 1215,
      "Ġ26": 1216,
      "tr": 1217,
      "ĠNor": 1218,
      "gh": 1219,
      "rough": 1220,
      "Ġbel": 1221,
      "theta": 1222,
      "bet": 1223,
      "beta": 1224,
      "Ġtrans": 1225,
      "Ġpart": 1226,
      "delta": 1227,
      "sig": 1228,
      "sigma": 1229,
      "gam": 1230,
      "gamma": 1231,
      "omain": 1232,
      "Ġknown": 1233,
      "Ġshut": 1234,
      "Ġrequ": 1235,
      "ĠArab": 1236,
      "pal": 1237,
      "Ġlike": 1238,
      "eam": 1239,
      "Ġop": 1240,
      "Ġen": 1241,
      "erate": 1242,
      "umerate": 1243,
      "Ġenumerate": 1244,
      "ench": 1245,
      "enchmark": 1246,
      "each": 1247,
      "Ġrows": 1248,
      "rg": 1249,
      "ĠGeographically": 1250,
      "ict": 1251,
      "Ġvalue": 1252,
      "Ġtable": 1253,
      "Ġ<": 1254,
      "ity": 1255,
      "les": 1256,
      "alk": 1257,
      "cies": 1258,
      "Ġdependencies": 1259,
      "Ġ36": 1260,
      "str": 1261,
      "ique": 1262,
      "ENT": 1263,
      "Ġrever": 1264,
      "Ġreverse": 1265,
      "alph": 1266,
      "Ġfibonacci": 1267,
      "alpha": 1268,
      "Ġcommon": 1269,
      "omeg": 1270,
      "omega": 1271,
      "sition": 1272,
      "Ġposition": 1273,
      "rome": 1274,
      "indrome": 1275,
      "palindrome": 1276,
      "Ġwe": 1277,
      "arm": 1278,
      "icate": 1279,
      "Ġstart": 1280,
      "Ġuses": 1281,
      "Ġsomeone": 1282,
      "Ġflag": 1283,
      "orial": 1284,
      "Ġfactorial": 1285,
      "ove": 1286,
      "atement": 1287,
      "elements": 1288,
      "udit": 1289,
      "Ġaccess": 1290,
      "isk": 1291,
      "Ġhabitats": 1292,
      "Ġsee": 1293,
      "Ġsecond": 1294,
      "Ġreview": 1295,
      "charg": 1296,
      "Ġdischarg": 1297,
      "proof": 1298,
      "Ġdist": 1299,
      "Ġlines": 1300,
      "Natural": 1301,
      "ded": 1302,
      "rect": 1303,
      "Ġinference": 1304,
      "Ġearlier": 1305,
      "Ġderivation": 1306,
      "Ġcorrect": 1307,
      "deduction": 1308,
      "ĠModus": 1309,
      "rit": 1310,
      "ritique": 1311,
      "Ġ29": 1312,
      "Ġwas": 1313,
      "no": 1314,
      "In": 1315,
      "nam": 1316,
      "ietnam": 1317,
      "ĠTrue": 1318,
      "ĠZ": 1319,
      "ied": 1320,
      "eo": 1321,
      "ply": 1322,
      "Ġ21": 1323,
      "plying": 1324,
      "Ġcomput": 1325,
      "Ġ{'": 1326,
      "ves": 1327,
      "ĠAmer": 1328,
      "}.": 1329,
      "Ġdif": 1330,
      "Ġ38": 1331,
      "},": 1332,
      "Ġdraft": 1333,
      "erd": 1334,
      "prim": 1335,
      "prime": 1336,
      "mal": 1337,
      "ĠAmerica": 1338,
      "ĠVietnam": 1339,
      "Ġconstr": 1340,
      "--": 1341,
      "ĠUn": 1342,
      "Dou": 1343,
      "Take": 1344,
      "bling": 1345,
      "len": 1346,
      "ope": 1347,
      "ĠFirst": 1348,
      "ĠSum": 1349,
      "Ġscope": 1350,
      "ĠWork": 1351,
      "words": 1352,
      "Doubling": 1353,
      "([-": 1354,
      "Ġ(Â¬": 1355,
      "Count": 1356,
      "oc": 1357,
      "ents": 1358,
      "ively": 1359,
      "'.": 1360,
      "Head": 1361,
      "Here": 1362,
      "Pro": 1363,
      "Und": 1364,
      "due": 1365,
      "gating": 1366,
      "risk": 1367,
      "Ġaffe": 1368,
      "erst": 1369,
      "Ġdele": 1370,
      "cted": 1371,
      "lete": 1372,
      "ntil": 1373,
      "ĠPlease": 1374,
      "ĠBecause": 1375,
      "Ġtrack": 1376,
      "planning": 1377,
      "Ġordered": 1378,
      "Ġneeds": 1379,
      "Ġgoing": 1380,
      "ĠNext": 1381,
      "Ġcomplete": 1382,
      "ffected": 1383,
      "Ġprioritize": 1384,
      "Ġschedule": 1385,
      "Ġuntil": 1386,
      "Ġunaffected": 1387,
      "Heads": 1388,
      "Progress": 1389,
      "Underst": 1390,
      "Ġaffects": 1391,
      "Ġdelegating": 1392,
      "Understood": 1393,
      "atis": 1394,
      "ited": 1395,
      "Ġalg": 1396,
      "ĠSome": 1397,
      "Ġsatis": 1398,
      "Ġsatisf": 1399,
      "sh": 1400,
      "rot": 1401,
      "ĠCO": 1402,
      "Ġabove": 1403,
      "ĠCounting": 1404,
      "Ġmam": 1405,
      "ten": 1406,
      "Ġter": 1407,
      "rest": 1408,
      "rial": 1409,
      "Ġterrest": 1410,
      "Ġterrestrial": 1411,
      "Ġvalid": 1412,
      "ania": 1413,
      "Ġdown": 1414,
      "Ġmon": 1415,
      "Ġcons": 1416,
      "vowels": 1417,
      "Ġprepare": 1418,
      "Or": 1419,
      "Ġ__": 1420,
      "Ġment": 1421,
      "imated": 1422,
      "ecuted": 1423,
      "ĠDon": 1424,
      "Ġhead": 1425,
      "Ġarithmetic": 1426,
      "Ġexecuted": 1427,
      "Ġestimated": 1428,
      "__(": 1429,
      "Ġtrusting": 1430,
      "Order": 1431,
      "Ġmental": 1432,
      "matrix": 1433,
      "ready": 1434,
      "Ġalready": 1435,
      "ĠUnited": 1436,
      "ains": 1437,
      "Ġgiven": 1438,
      "ĠSpanish": 1439,
      "Ġvalues": 1440,
      "argest": 1441,
      "cd": 1442,
      "Ġforward": 1443,
      "ĠEvery": 1444,
      "Ġ32": 1445,
      "Ġnon": 1446,
      "uil": 1447,
      "Ġbuil": 1448,
      "Ġstring": 1449,
      "Ġbub": 1450,
      "Ġsomething": 1451,
      "Ġbubble": 1452,
      "Ã©": 1453,
      "his": 1454,
      "ĠLike": 1455,
      "Ġcondition": 1456,
      "ĠSt": 1457,
      "ĠFi": 1458,
      "First": 1459,
      "Sum": 1460,
      "nth": 1461,
      "quence": 1462,
      "Ġsequence": 1463,
      "Ġthreat": 1464,
      "serve": 1465,
      "Ġhad": 1466,
      "Tru": 1467,
      "Vari": 1468,
      "Verd": 1469,
      "We": 1470,
      "}).": 1471,
      "ush": 1472,
      "Ġwalk": 1473,
      "through": 1474,
      "Ġeval": 1475,
      "ables": 1476,
      "Ġranges": 1477,
      "Truth": 1478,
      "Variables": 1479,
      "Verdict": 1480,
      "Ġwalkthrough": 1481,
      "Ġevaluate": 1482,
      "25": 1483,
      "ted": 1484,
      "ucts": 1485,
      "Ġproducts": 1486,
      "Ġmake": 1487,
      "level": 1488,
      "actly": 1489,
      "Ġexactly": 1490,
      "Ġim": 1491,
      "ball": 1492,
      "gl": 1493,
      "ngl": 1494,
      "ifted": 1495,
      "Ġshifted": 1496,
      "nglish": 1497,
      "Facts": 1498,
      "ists": 1499,
      "ai": 1500,
      "ne": 1501,
      "Ġ48": 1502,
      "orithm": 1503,
      "Ġalgorithm": 1504,
      "pose": 1505,
      "string": 1506,
      ")))": 1507,
      "retly": 1508,
      "Ġden": 1509,
      "Ġbest": 1510,
      "Ġmax": 1511,
      "Ġprim": 1512,
      "oted": 1513,
      "Ġquoted": 1514,
      "ĠEnglish": 1515,
      "ned": 1516,
      "gru": 1517,
      "mod": 1518,
      "ī¡": 1519,
      "Ġâī¡": 1520,
      "ution": 1521,
      "Ġcongru": 1522,
      "Ġchecking": 1523,
      "Ġ...,": 1524,
      "Ġresidue": 1525,
      "Ġcongruence": 1526,
      "Ġanyone": 1527,
      "Ġbl": 1528,
      "Ġrect": 1529,
      "ized": 1530,
      "sin": 1531,
      "unicate": 1532,
      "Ġcommunicate": 1533,
      "since": 1534,
      "ais": 1535,
      "Ġelement": 1536,
      "iver": 1537,
      "Ġclean": 1538,
      "outh": 1539,
      "ĠPol": 1540,
      "viv": 1541,
      "Ġsur": 1542,
      "Ġsurviv": 1543,
      "Ġ%": 1544,
      "ĠSouth": 1545,
      "digits": 1546,
      "ost": 1547,
      "leag": 1548,
      "Ġcolleag": 1549,
      "Ġcolleague": 1550,
      "way": 1551,
      "ĠComp": 1552,
      "ell": 1553,
      "ivers": 1554,
      "Ġrequest": 1555,
      "ose": 1556,
      "'])": 1557,
      ");": 1558,
      "KeyError": 1559,
      "My": 1560,
      "]}": 1561,
      "Ġrais": 1562,
      "ĠThat": 1563,
      "Ġthere": 1564,
      "ĠGive": 1565,
      "Ġwrong": 1566,
      "ĠRun": 1567,
      "Ġprecomputed": 1568,
      "ĠKeyError": 1569,
      "Ġfailed": 1570,
      "Ġcomputing": 1571,
      "Ġraised": 1572,
      "Ġchang": 1573,
      "ree": 1574,
      "Ġman": 1575,
      "Ġgcd": 1576,
      "ĠCONT": 1577,
      "ana": 1578,
      "any": 1579,
      "Ġrespe": 1580,
      "Ġrespect": 1581,
      "Ġfall": 1582,
      "acy": 1583,
      "Ġfallacy": 1584,
      "ary": 1585,
      "ested": 1586,
      "ĠToll": 1587,
      "ĠTollens": 1588,
      "ible": 1589,
      "sound": 1590,
      "Ġgues": 1591,
      "Ġreturned": 1592,
      "Ġplaus": 1593,
      "sounding": 1594,
      "Ġguess": 1595,
      "Ġplausible": 1596,
      "Ġhold": 1597,
      "ĠAll": 1598,
      "fric": 1599,
      "ĠAfric": 1600,
      "ollar": 1601,
      "ĠAfrica": 1602,
      "Ġsmaller": 1603,
      "ĠCh": 1604,
      "ingu": 1605,
      "ther": 1606,
      "Ġused": 1607,
      "Ġneg": 1608,
      "GENT": 1609,
      "IN": 1610,
      "Ġoth": 1611,
      "Ġassignments": 1612,
      "ĠCONTIN": 1613,
      "Ġothers": 1614,
      "ĠCONTINGENT": 1615,
      "Ġad": 1616,
      "Ġow": 1617,
      "uc": 1618,
      "elp": 1619,
      "ĠDollar": 1620,
      "'d": 1621,
      "Ġmer": 1622,
      "Ġpay": 1623,
      "eople": 1624,
      "Ġconsists": 1625,
      "Ġharm": 1626,
      "Ġtarg": 1627,
      "Ġded": 1628,
      "search": 1629,
      "Ġlinear": 1630,
      "Ġseen": 1631,
      "preserve": 1632,
      "Ġtarget": 1633,
      "Ġdedup": 1634,
      "Ġcity": 1635,
      "Ġmammal": 1636,
      "Each": 1637,
      "rees": 1638,
      "fre": 1639,
      "ency": 1640,
      "quency": 1641,
      "frequency": 1642,
      "Ġ34": 1643,
      "trans": 1644,
      "largest": 1645,
      "Ġbase": 1646,
      "aim": 1647,
      "ssum": 1648,
      "introduction": 1649,
      "Ġsubproof": 1650,
      "Ġelse": 1651,
      "Ġinto": 1652,
      "Ġdischarging": 1653,
      "Ġconditional": 1654,
      "Solution": 1655,
      "Solutions": 1656,
      "29": 1657,
      "sorted": 1658,
      "Ġmatrix": 1659,
      "premise": 1660,
      "Ġtrees": 1661,
      "Ġaft": 1662,
      "Ġformulas": 1663,
      "pear": 1664,
      "Ġapplying": 1665,
      "Ġappear": 1666,
      "Ġchecked": 1667,
      "Ġproduc": 1668,
      "Ġconstruction": 1669,
      "Ġbuilt": 1670,
      "Ġafter": 1671,
      "Ġproduced": 1672,
      "Ġcountry": 1673,
      "Ġsort": 1674,
      "add": 1675,
      "Ġ50": 1676,
      "onest": 1677,
      "init": 1678,
      "Ġdoes": 1679,
      "ĠNo": 1680,
      "class": 1681,
      "Finds": 1682,
      "24": 1683,
      "27": 1684,
      "onens": 1685,
      "ĠPonens": 1686,
      "rices": 1687,
      "Ġfun": 1688,
      "Ġ37": 1689,
      "sk": 1690,
      "Ġ(((": 1691,
      "Ġ35": 1692,
      "ji": 1693,
      "anti": 1694,
      "verned": 1695,
      "Ġgoverned": 1696,
      "Ġliv": 1697,
      "000": 1698,
      "=-": 1699,
      "Ġbro": 1700,
      "Ġserves": 1701,
      "Ġclassified": 1702,
      "]:": 1703,
      "Ġway": 1704,
      "Ġstr": 1705,
      "isit": 1706,
      "Ġlies": 1707,
      "Ġgoals": 1708,
      "Ġvisit": 1709,
      "Ġsab": 1710,
      "otage": 1711,
      "Ġsabotage": 1712,
      "Ġhome": 1713,
      "io": 1714,
      "ipp": 1715,
      "oci": 1716,
      "istically": 1717,
      "Ġassoci": 1718,
      "inguistically": 1719,
      "Ġassociated": 1720,
      "inated": 1721,
      "ominated": 1722,
      "Ġeats": 1723,
      "Ġmoney": 1724,
      "Ġdenominated": 1725,
      "push": 1726,
      "ĠStack": 1727,
      "lad": 1728,
      "ongs": 1729,
      "Ġbelongs": 1730,
      "Ġclient": 1731,
      "This": 1732,
      "Ġnatural": 1733,
      "Ġhabitat": 1734,
      "Ġcontains": 1735,
      "Ġhands": 1736,
      "run": 1737,
      "Ġsatisfies": 1738,
      "xample": 1739,
      "pty": 1740,
      "erexample": 1741,
      "empty": 1742,
      "Ġresidents": 1743,
      "aps": 1744,
      "Ġwithin": 1745,
      "Ġ33": 1746,
      "ĠTh": 1747,
      "Ġfeeds": 1748,
      "Ġloc": 1749,
      "Ġlocated": 1750,
      "Ġprimary": 1751,
      "comp": 1752,
      "ĠFiji": 1753,
      "compile": 1754,
      "ĠNorth": 1755,
      "23": 1756,
      "Ġcleaned": 1757,
      "28": 1758,
      "Ġdiet": 1759,
      "Ġmainly": 1760,
      "ĠWe": 1761,
      "avel": 1762,
      "Ġsal": 1763,
      "Ġtravel": 1764,
      "Ġhear": 1765,
      "[:": 1766,
      "Ġ>": 1767,
      "Ġwhe": 1768,
      "123": 1769,
      "refactor": 1770,
      "Ġspe": 1771,
      "Ġspeak": 1772,
      "26": 1773,
      "Ġdec": 1774,
      "Ġeating": 1775,
      "ĠSpain": 1776,
      "Ġsurvives": 1777,
      "ĠAn": 1778,
      "100": 1779,
      "Ġliving": 1780,
      "Ġbir": 1781,
      "Ġcompile": 1782,
      "ĠPoland": 1783,
      "for": 1784,
      "Ġrefactor": 1785,
      "Ġserver": 1786,
      "ication": 1787,
      "Ġclassification": 1788,
      "alay": 1789,
      "Ġfoll": 1790,
      "Ġfollow": 1791,
      "Ġmis": 1792,
      "520": 1793,
      "Ġprom": 1794,
      "otion": 1795,
      "Ġpromotion": 1796,
      "wo": 1797,
      "Ġtwo": 1798,
      "30": 1799,
      "Per": 1800,
      "Ġdomain": 1801,
      "base": 1802,
      "iangle": 1803,
      "itor": 1804,
      "etitor": 1805,
      "Ġtriangle": 1806,
      "Ġcompetitor": 1807,
      "length": 1808,
      "Ġperimeter": 1809,
      "Ġrectangle": 1810,
      "Perimeter": 1811,
      "uel": 1812,
      "Ġgard": 1813,
      "uela": 1814,
      "ĠMalay": 1815,
      "Circ": 1816,
      "ius": 1817,
      "Ġrad": 1818,
      "exact": 1819,
      "Ġcircle": 1820,
      "Ġcircumference": 1821,
      "Ġrespectively": 1822,
      "Circumference": 1823,
      "Ġradius": 1824,
      "Ġant": 1825,
      "Ġscor": 1826,
      "ez": 1827,
      "review": 1828,
      "ico": 1829,
      "Ġstand": 1830,
      "Ġstandard": 1831,
      "ager": 1832,
      "Ġmanager": 1833,
      "gument": 1834,
      "Ġargument": 1835,
      "ator": 1836,
      "prepare": 1837,
      "epart": 1838,
      "epartment": 1839,
      "air": 1840,
      "migrate": 1841,
      "Ġmigrate": 1842,
      "ĠHelp": 1843,
      "pos": 1844,
      "Ġfish": 1845,
      "Ġ31": 1846,
      "205": 1847,
      "ĠFr": 1848,
      "Ġset": 1849,
      "Ġsign": 1850,
      "ade": 1851,
      "Wr": 1852,
      "hol": 1853,
      "inor": 1854,
      "ĠIt": 1855,
      "jor": 1856,
      "ĠPrices": 1857,
      "amed": 1858,
      "ĠTeam": 1859,
      "ĠDepartment": 1860,
      "draft": 1861,
      "Ġbenchmark": 1862,
      "eal": 1863,
      "een": 1864,
      "ween": 1865,
      "Ġ39": 1866,
      "etween": 1867,
      "ĠAsk": 1868,
      "ived": 1869,
      "aniz": 1870,
      "rganiz": 1871,
      "rganization": 1872,
      "22": 1873,
      "update": 1874,
      "ĠCompany": 1875,
      "Ġmess": 1876,
      "Ġmessage": 1877,
      "Ġstake": 1878,
      "holder": 1879,
      "Ġstakeholder": 1880,
      "ctar": 1881,
      "Ġnectar": 1882,
      "enez": 1883,
      "enezuela": 1884,
      "ĠLinguistically": 1885,
      "Ġgardens": 1886,
      "ems": 1887,
      "Ġharmful": 1888,
      "Ġinsect": 1889,
      "ĠOrganization": 1890,
      "Ġopen": 1891,
      "ĠGroup": 1892,
      "lain": 1893,
      "Ġaqu": 1894,
      "Ġcomplain": 1895,
      "Ġcomplaint": 1896,
      "benchmark": 1897,
      "cess": 1898,
      "exico": 1899,
      "AL": 1900,
      "ID": 1901,
      "Ma": 1902,
      "Minor": 1903,
      "haus": 1904,
      "tive": 1905,
      "yll": 1906,
      "ism": 1907,
      "Ġfig": 1908,
      "Ġmood": 1909,
      "ogism": 1910,
      "Ġexhaus": 1911,
      "Ġsearch": 1912,
      "ALID": 1913,
      "Major": 1914,
      "yllogism": 1915,
      "Ġfigure": 1916,
      "Ġexhaustive": 1917,
      "verage": 1918,
      "Ġleverage": 1919,
      "Ã¡": 1920,
      "hing": 1921,
      "Ġvia": 1922,
      "ĠMost": 1923,
      "ĠMaps": 1924,
      "Ġteam": 1925,
      "Ġsim": 1926,
      "Ġsimple": 1927,
      "ĠBiolog": 1928,
      "ĠBiologically": 1929,
      "21": 1930,
      "ian": 1931,
      "Ġes": 1932,
      "uled": 1933,
      "Ġscheduled": 1934,
      "mir": 1935,
      "ĠEmir": 1936,
      "Ġdifference": 1937,
      "ĠEmirates": 1938,
      ")^": 1939,
      "Ġ((-": 1940,
      "ĠNew": 1941,
      "idd": 1942,
      "Ġneed": 1943,
      "Ġ[-": 1944,
      "ĠVenezuela": 1945,
      "erce": 1946,
      "Ġbecause": 1947,
      "Ġcoerce": 1948,
      "andal": 1949,
      "ortug": 1950,
      "Ġscandal": 1951,
      "zania": 1952,
      "anzania": 1953,
      "Domain": 1954,
      "audit": 1955,
      "âĪ": 1956,
      "Ī{": 1957,
      "stanti": 1958,
      "Ġstatement": 1959,
      "Statement": 1960,
      "Instanti": 1961,
      "ĠChile": 1962,
      "âĪĪ{": 1963,
      "Instantiating": 1964,
      "Ġaudit": 1965,
      "ether": 1966,
      "ĠPeople": 1967,
      "etherlands": 1968,
      "oal": 1969,
      "Ġhonest": 1970,
      "ĠMexico": 1971,
      "999": 1972,
      "40": 1973,
      "Ġround": 1974,
      "Ġeith": 1975,
      "Ġeither": 1976,
      "310": 1977,
      "Arg": 1978,
      "Critique": 1979,
      "by": 1980,
      "occ": 1981,
      "Ġcritique": 1982,
      "ito": 1983,
      "ugby": 1984,
      "Wrong": 1985,
      "Argument": 1986,
      "fish": 1987,
      "Ġgood": 1988,
      "ĠZeal": 1989,
      "ĠZealand": 1990,
      "down": 1991,
      "ge": 1992,
      "415": 1993,
      "ature": 1994,
      "ous": 1995,
      "Ġthose": 1996,
      "Ġoper": 1997,
      "ĠTanzania": 1998,
      "ĠPortug": 1999,
      "ider": 2000,
      "ces": 2001,
      "Ġnote": 2002,
      "nect": 2003,
      "ĠestÃ¡": 2004,
      "eb": 2005,
      "ĠNetherlands": 2006,
      "OP": 2007,
      "Ġshutdown": 2008,
      "OPE": 2009,
      "put": 2010,
      "ater": 2011,
      "Ġrivers": 2012,
      "ecretly": 2013,
      "ision": 2014,
      "ying": 2015,
      "ĠJe": 2016,
      "Ġrept": 2017,
      "Ġsk": 2018,
      "late": 2019,
      "square": 2020,
      "Ġdistance": 2021,
      "squared": 2022,
      "Ġact": 2023,
      "its": 2024,
      "Ġclasses": 2025,
      "engo": 2026,
      "olf": 2027,
      "Ġpig": 2028,
      "Counts": 2029,
      "Ġrugby": 2030,
      "ĠSecretly": 2031,
      "ipped": 2032,
      "fly": 2033,
      "ĠCan": 2034,
      "sent": 2035,
      "ĠMalaysia": 2036,
      "umul": 2037,
      "Ġuniq": 2038,
      "Ġdiffer": 2039,
      "ĠItal": 2040,
      "Ġ{}": 2041,
      "Ġsorted": 2042,
      ":])": 2043,
      "ici": 2044,
      "Ġvowels": 2045,
      "extend": 2046,
      "Ġmerge": 2047,
      "Ret": 2048,
      "urns": 2049,
      "Returns": 2050,
      "transpose": 2051,
      "ustr": 2052,
      "eso": 2053,
      "Ġsumm": 2054,
      "Between": 2055,
      "Ġlate": 2056,
      "aset": 2057,
      "Ġarrived": 2058,
      "Ġdataset": 2059,
      "Fl": 2060,
      "Ġfin": 2061,
      "less": 2062,
      "Ġown": 2063,
      "Ge": 2064,
      "^(": 2065,
      "count": 2066,
      "omet": 2067,
      "ordCount": 2068,
      "Ġratio": 2069,
      "ĠWordCount": 2070,
      "Geomet": 2071,
      "ĠWordCounter": 2072,
      "Geometric": 2073,
      "lation": 2074,
      "action": 2075,
      "Ġsubtr": 2076,
      "Ġsubtraction": 2077,
      "Ġturn": 2078,
      "ebra": 2079,
      "Ġsay": 2080,
      "ended": 2081,
      "Ġlists": 2082,
      "]])": 2083,
      "([[": 2084,
      "Ġrec": 2085,
      "ĠPeso": 2086,
      "etter": 2087,
      "Ġbacked": 2088,
      "ĠLa": 2089,
      "Ġcr": 2090,
      "Ġbird": 2091,
      "zebra": 2092,
      "ĠAustr": 2093,
      "Ġseeds": 2094,
      "Ġwet": 2095,
      "Ġskies": 2096,
      "Ġwetlands": 2097,
      "Ġinfor": 2098,
      "Ġinform": 2099,
      "List": 2100,
      "ĠSw": 2101,
      "pop": 2102,
      "Listen": 2103,
      "dist": 2104,
      "Ġmus": 2105,
      "lg": 2106,
      "part": 2107,
      "ame": 2108,
      "Ġpartial": 2109,
      "partial": 2110,
      "atten": 2111,
      "Ġflatten": 2112,
      "Ġav": 2113,
      "rib": 2114,
      "Ar": 2115,
      "Ġ<=": 2116,
      "Arithmetic": 2117,
      "Qu": 2118,
      "ÃŃ": 2119,
      ":-": 2120,
      "Ġaddition": 2121,
      "[::-": 2122,
      "Quick": 2123,
      "rows": 2124,
      "ĠAlg": 2125,
      "(-": 2126,
      "uin": 2127,
      "ining": 2128,
      "Sums": 2129,
      "aw": 2130,
      "Ġrot": 2131,
      "Ġrotate": 2132,
      "ĠNorway": 2133,
      "ĠÂ¬Â¬": 2134,
      "ackma": 2135,
      "Ġblackma": 2136,
      "Ġblackmail": 2137,
      ".\"": 2138,
      "Ġ\"": 2139,
      "Ġuniver": 2140,
      "Checks": 2141,
      "Ġuniverse": 2142,
      "ĠGree": 2143,
      "anda": 2144,
      "Ġwhere": 2145,
      "Con": 2146,
      "back": 2147,
      "return": 2148,
      "edback": 2149,
      "Ġfeedback": 2150,
      "returned": 2151,
      "ĠFin": 2152,
      "Ġprioritized": 2153,
      "ceania": 2154,
      "ĠOceania": 2155,
      "Ġinv": 2156,
      "Comput": 2157,
      "Computes": 2158,
      "Ġro": 2159,
      "res": 2160,
      "che": 2161,
      "Earlier": 2162,
      "Ref": 2163,
      "fs": 2164,
      "native": 2165,
      "Ġcall": 2166,
      "cting": 2167,
      "Ġwere": 2168,
      "Ġbetter": 2169,
      "lecting": 2170,
      "Ġstill": 2171,
      "ighing": 2172,
      "Ġtrade": 2173,
      "ooking": 2174,
      "offs": 2175,
      "ĠLooking": 2176,
      "Ġalter": 2177,
      "Ġpriorities": 2178,
      "Ġseems": 2179,
      "ĠWeighing": 2180,
      "Ġdifferent": 2181,
      "Reflecting": 2182,
      "Ġalternative": 2183,
      "PI": 2184,
      "ream": 2185,
      "Ġdon": 2186,
      "stream": 2187,
      "ĠAPI": 2188,
      "Ġupstream": 2189,
      "Ġchanged": 2190,
      "con": 2191,
      "our": 2192,
      "Ġ56": 2193,
      "Modus": 2194,
      "ador": 2195,
      "uba": 2196,
      "Ġclear": 2197,
      "Ġsigning": 2198,
      "ars": 2199,
      "Ġinval": 2200,
      "Ġinvalid": 2201,
      "Ġhit": 2202,
      "idence": 2203,
      "Ġexpose": 2204,
      "ada": 2205,
      "Ġconc": 2206,
      "Ġdependency": 2207,
      "shipped": 2208,
      "Ġbroke": 2209,
      "ĠPortugal": 2210,
      "get": 2211,
      "over": 2212,
      "Ġhandover": 2213,
      "inst": 2214,
      "Ġ45": 2215,
      "Ġev": 2216,
      "instance": 2217,
      "ob": 2218,
      "olve": 2219,
      "Ġresolve": 2220,
      "ĠItaly": 2221,
      "Ġpoint": 2222,
      "eria": 2223,
      "anc": 2224,
      "ĠCuba": 2225,
      "process": 2226,
      "processing": 2227,
      "Ġaction": 2228,
      "ĠMan": 2229,
      "Ġbea": 2230,
      "Ã³": 2231,
      "OL": 2232,
      "ased": 2233,
      "Ġchange": 2234,
      "Ġdoesn": 2235,
      "ĠCanada": 2236,
      "ton": 2237,
      "edent": 2238,
      "ecedent": 2239,
      "Ġnegated": 2240,
      "Ġantecedent": 2241,
      "ires": 2242,
      "Ġmidd": 2243,
      "istan": 2244,
      "akistan": 2245,
      "ributed": 2246,
      "Ġmiddle": 2247,
      "ĠArabic": 2248,
      "itim": 2249,
      "Ġassist": 2250,
      "Ġlegitim": 2251,
      "Ġgoal": 2252,
      "Ġplayed": 2253,
      "Ġlegitimate": 2254,
      "ailand": 2255,
      "Ġnegative": 2256,
      "Ġ44": 2257,
      "ĠFrance": 2258,
      "orts": 2259,
      "ket": 2260,
      "Ġdone": 2261,
      "Ġconf": 2262,
      "ricket": 2263,
      "ommended": 2264,
      "Ġrecommended": 2265,
      "),": 2266,
      "oliv": 2267,
      "Ġ100": 2268,
      "hil": 2269,
      "Ġpress": 2270,
      "Ġsecret": 2271,
      "Ġpressure": 2272,
      "Ġabs": 2273,
      "ern": 2274,
      "Ġfo": 2275,
      "Ġmet": 2276,
      "ee": 2277,
      "ingo": 2278,
      "amingo": 2279,
      "Ġbackup": 2280,
      "Ġglad": 2281,
      "fus": 2282,
      "Ġrefus": 2283,
      "efore": 2284,
      "Ġscore": 2285,
      "water": 2286,
      "Ġfresh": 2287,
      "Ġfreshwater": 2288,
      "ding": 2289,
      "amand": 2290,
      "Ġ54": 2291,
      "ĠDraft": 2292,
      "Ġfunding": 2293,
      "amander": 2294,
      "ufact": 2295,
      "Ġsug": 2296,
      "Ġfake": 2297,
      "Ġlong": 2298,
      "Ġwent": 2299,
      "Ġstag": 2300,
      "ĠPakistan": 2301,
      "Ġsugg": 2302,
      "Ġstaging": 2303,
      "usta": 2304,
      "Ġune": 2305,
      "Ġoff": 2306,
      "Ġwithout": 2307,
      "Ġcopy": 2308,
      "Ġsecretly": 2309,
      "ĠThailand": 2310,
      "Ġturned": 2311,
      "Ġwarm": 2312,
      ")]": 2313,
      "Assum": 2314,
      "Goal": 2315,
      "Im": 2316,
      "por": 2317,
      "sub": 2318,
      "Ġtem": 2319,
      "Ġsing": 2320,
      "Ġsound": 2321,
      "ĠAssum": 2322,
      "ĠBoliv": 2323,
      "implies": 2324,
      "plied": 2325,
      "Ġassuming": 2326,
      "Ġalway": 2327,
      "Ġapplied": 2328,
      "Ġderive": 2329,
      "Ġrestates": 2330,
      "Ġderiving": 2331,
      "arily": 2332,
      "Ġbelow": 2333,
      "Ġdischarges": 2334,
      "Ġcorrectly": 2335,
      "Ġimplies": 2336,
      "Ġfollows": 2337,
      "Ġfinal": 2338,
      "Assumption": 2339,
      "Implies": 2340,
      "porarily": 2341,
      "subproof": 2342,
      "Ġtemporarily": 2343,
      "Ġsingle": 2344,
      "ĠAssume": 2345,
      "Ġalways": 2346,
      "32": 2347,
      "Ġ46": 2348,
      "Ġtold": 2349,
      "Ġpropos": 2350,
      "Ġsummar": 2351,
      "AI": 2352,
      "cu": 2353,
      "not": 2354,
      "Ġinfer": 2355,
      "odel": 2356,
      "applies": 2357,
      "ĠFrom": 2358,
      "ermodel": 2359,
      "claim": 2360,
      "Ġcannot": 2361,
      "ĠLine": 2362,
      "Ġflamingo": 2363,
      "ĠCountermodel": 2364,
      "Ġrequires": 2365,
      "Ġvalidly": 2366,
      "Ġmisapplies": 2367,
      "cuador": 2368,
      "claimed": 2369,
      "ewer": 2370,
      "Ġsick": 2371,
      "Ġrevi": 2372,
      "Ġitems": 2373,
      "Ġreviewer": 2374,
      "Ġsalamander": 2375,
      "oves": 2376,
      "rench": 2377,
      "Ġinformation": 2378,
      "cing": 2379,
      "rol": 2380,
      "ĠUk": 2381,
      "Ġcontrol": 2382,
      "Ġoperator": 2383,
      "Ġbeing": 2384,
      "ĠKore": 2385,
      "deliver": 2386,
      "delivered": 2387,
      "canc": 2388,
      "elled": 2389,
      "cancelled": 2390,
      "ae": 2391,
      "ges": 2392,
      "aro": 2393,
      "ĠIs": 2394,
      "parent": 2395,
      "Ġtransparent": 2396,
      "ĠAlgeria": 2397,
      "alia": 2398,
      "Ġhide": 2399,
      "ĠNOPE": 2400,
      "eer": 2401,
      "Ġ99": 2402,
      "Ġdro": 2403,
      "Ġreput": 2404,
      "Ġdiscon": 2405,
      "Ġfeature": 2406,
      "Ġdrop": 2407,
      "Ġreputation": 2408,
      "Ġdisconnect": 2409,
      "ĠEcuador": 2410,
      "ermining": 2411,
      "Ġful": 2412,
      "Ġfull": 2413,
      "ĠLe": 2414,
      "Ġblamed": 2415,
      "idation": 2416,
      "imidation": 2417,
      "Ġintimidation": 2418,
      "IO": 2419,
      "ily": 2420,
      "Ġfam": 2421,
      "Ġdeer": 2422,
      "Ġlion": 2423,
      "Ġmainten": 2424,
      "Ġtransfer": 2425,
      "Ġimplying": 2426,
      "Ġfunds": 2427,
      "Ġfamily": 2428,
      "Ġmaintenance": 2429,
      "bug": 2430,
      "sequ": 2431,
      "Ġconsequ": 2432,
      "adybug": 2433,
      "ĠGreece": 2434,
      "Ġconsequent": 2435,
      "Ġscoring": 2436,
      "ĠAustralia": 2437,
      "ĠFinland": 2438,
      "Ġcricket": 2439,
      "ĠÂ¬((": 2440,
      "Sp": 2441,
      "Ġpol": 2442,
      "uth": 2443,
      "34": 2444,
      "Ġparrot": 2445,
      "50": 2446,
      "op": 2447,
      "38": 2448,
      "br": 2449,
      "Ġinver": 2450,
      "tebr": 2451,
      "Ġinvertebr": 2452,
      "Ġinvertebrates": 2453,
      "inct": 2454,
      "Ġdistinct": 2455,
      "You": 2456,
      "Ġcour": 2457,
      "Ġladybug": 2458,
      "reland": 2459,
      "elling": 2460,
      "etle": 2461,
      "uctive": 2462,
      "Ġfiel": 2463,
      "pur": 2464,
      "ĠManufact": 2465,
      "35": 2466,
      "occer": 2467,
      "Syllogism": 2468,
      "so": 2469,
      "tle": 2470,
      "alle": 2471,
      "Ġthree": 2472,
      "Ġalso": 2473,
      "Ġassigning": 2474,
      "ĠVALID": 2475,
      "Ġfails": 2476,
      "Ġsatisfying": 2477,
      "Conclusion": 2478,
      "ran": 2479,
      "Ġflow": 2480,
      "mon": 2481,
      "Ġoce": 2482,
      "Ġlakes": 2483,
      "Ġoceans": 2484,
      "cod": 2485,
      "enn": 2486,
      "rocod": 2487,
      "rocodile": 2488,
      "Ġph": 2489,
      "Ġsl": 2490,
      "enef": 2491,
      "Ġbenef": 2492,
      "Ġbenefits": 2493,
      "ois": 2494,
      "Ġsize": 2495,
      "atic": 2496,
      "Ġaquatic": 2497,
      "Ġtim": 2498,
      "ĠIreland": 2499,
      "Ġ60": 2500,
      "agle": 2501,
      "Ġbeetle": 2502,
      "Ġtime": 2503,
      "quito": 2504,
      "terfly": 2505,
      "osquito": 2506,
      "36": 2507,
      "Ġdocument": 2508,
      "orrow": 2509,
      "Ġborrow": 2510,
      "ĠEl": 2511,
      "Ġcow": 2512,
      "Ġshark": 2513,
      "Ġdecision": 2514,
      "Hap": 2515,
      "Ġsalmon": 2516,
      "Happy": 2517,
      "Ġtick": 2518,
      "ities": 2519,
      "Ġwolf": 2520,
      "Ġmount": 2521,
      "Ġcrocodile": 2522,
      "Ġpers": 2523,
      "Ġbic": 2524,
      "ĠBang": 2525,
      "Spanish": 2526,
      "Ġlet": 2527,
      "ĠGerm": 2528,
      "etball": 2529,
      "Ġ64": 2530,
      "Ġbutterfly": 2531,
      "angaro": 2532,
      "Ġspider": 2533,
      "angaroo": 2534,
      "'re": 2535,
      "Ġ80": 2536,
      "pion": 2537,
      "Ġmosquito": 2538,
      "Ġeagle": 2539,
      "Ġstate": 2540,
      "Ġfox": 2541,
      "Soccer": 2542,
      "key": 2543,
      "uatemal": 2544,
      "uatemala": 2545,
      "AE": 2546,
      "apan": 2547,
      "Ġowl": 2548,
      "Ġconcern": 2549,
      "ĠKorea": 2550,
      "hop": 2551,
      "per": 2552,
      "hopper": 2553,
      "imal": 2554,
      "Ġunless": 2555,
      "Ġvs": 2556,
      "Ġdogs": 2557,
      "roach": 2558,
      "ckroach": 2559,
      "Ġsup": 2560,
      "Ġkind": 2561,
      "ennis": 2562,
      "Ġsupport": 2563,
      "raine": 2564,
      "ium": 2565,
      "ular": 2566,
      "Ġthrough": 2567,
      "ĠDo": 2568,
      "Ġsaying": 2569,
      "56": 2570,
      "nake": 2571,
      "Ġcities": 2572,
      "ĠPy": 2573,
      "ko": 2574,
      "Ġscorpion": 2575,
      "Ġreptile": 2576,
      "Ġshould": 2577,
      "tes": 2578,
      "Ġzebra": 2579,
      "letes": 2580,
      "Ġkangaroo": 2581,
      "ĠJapan": 2582,
      "French": 2583,
      "to": 2584,
      "Ġ81": 2585,
      "Ġmiss": 2586,
      "Ġ57": 2587,
      "ĠGuatemala": 2588,
      "Ġpoints": 2589,
      "LS": 2590,
      "Ġsent": 2591,
      "Ġfair": 2592,
      "ences": 2593,
      "Ġmite": 2594,
      "ĠFAI": 2595,
      "Ġparalle": 2596,
      "Ġanything": 2597,
      "Ġservers": 2598,
      "Ġsentences": 2599,
      "ĠFAILS": 2600,
      "Ġparallel": 2601,
      "bit": 2602,
      "abbit": 2603,
      "Ġcockroach": 2604,
      "Ġgrasshopper": 2605,
      "ĠâĪĢ": 2606,
      "una": 2607,
      "Ġunivers": 2608,
      "ĠUkraine": 2609,
      "Ġuniversal": 2610,
      "istent": 2611,
      "ĠâĪĥ": 2612,
      "endor": 2613,
      "Ġexistent": 2614,
      "Ġvendor": 2615,
      "Ġexistential": 2616,
      "Ġdog": 2617,
      "ayfish": 2618,
      "izard": 2619,
      "Ġwasp": 2620,
      "Ġsnake": 2621,
      "ets": 2622,
      "Ġtrout": 2623,
      "udents": 2624,
      "DS": 2625,
      "urtle": 2626,
      "ĠHOL": 2627,
      "ĠHOLDS": 2628,
      "Ġbon": 2629,
      "utif": 2630,
      "ecko": 2631,
      "Ġbeautif": 2632,
      "Ġbeautiful": 2633,
      "Ġ49": 2634,
      "Ġ55": 2635,
      "Ġgoose": 2636,
      "ĠKeep": 2637,
      "bot": 2638,
      "Ġ42": 2639,
      "ĠUr": 2640,
      "DÃ³": 2641,
      "eon": 2642,
      "Â¿": 2643,
      "Ã¹": 2644,
      "Ġ?": 2645,
      "ĠÂ¿": 2646,
      "Ġbad": 2647,
      "Ġrabbit": 2648,
      "ĠInd": 2649,
      "nde": 2650,
      "here": 2651,
      "ĠWhere": 2652,
      "ĠOÃ¹": 2653,
      "DÃ³nde": 2654,
      "enguin": 2655,
      "Ġlizard": 2656,
      "ĠKing": 2657,
      "Ġcrayfish": 2658,
      "ingap": 2659,
      "Ġvois": 2660,
      "ĠVeo": 2661,
      "Ġflowers": 2662,
      "ingapore": 2663,
      "mals": 2664,
      "Ġici": 2665,
      "Ġhere": 2666,
      "ĠaquÃŃ": 2667,
      "Ġsuggested": 2668,
      "Ġturtle": 2669,
      "Ġath": 2670,
      "Ġgecko": 2671,
      "Ġstudents": 2672,
      "Ġathletes": 2673,
      "39": 2674,
      "cumul": 2675,
      "cumulative": 2676,
      "Ġsummarized": 2677,
      "min": 2678,
      "ĠRus": 2679,
      "Ġpigeon": 2680,
      "uck": 2681,
      "Ġpenguin": 2682,
      "Ġmountains": 2683,
      "No": 2684,
      "vels": 2685,
      "Ġgusta": 2686,
      "Ġ78": 2687,
      "ĠMe": 2688,
      "aime": 2689,
      "Ġcrab": 2690,
      "ĠTengo": 2691,
      "igator": 2692,
      "ĠSingapore": 2693,
      ")'": 2694,
      "37": 2695,
      "Point": 2696,
      "pr": 2697,
      "Ġtennis": 2698,
      "ina": 2699,
      "repr": 2700,
      "Ġ',": 2701,
      "Ġ')'": 2702,
      "Ġsquared": 2703,
      "oldfish": 2704,
      "Ġtranslate": 2705,
      "Ġtranslation": 2706,
      "translate": 2707,
      "distance": 2708,
      "NV": 2709,
      "Named": 2710,
      "Pur": 2711,
      "found": 2712,
      "Ġsyllogism": 2713,
      "Ġlab": 2714,
      "Ġocc": 2715,
      "eled": 2716,
      "ĠINV": 2717,
      "ĠAss": 2718,
      "ĠBoth": 2719,
      "Ġmodels": 2720,
      "ported": 2721,
      "urrences": 2722,
      "Counterexample": 2723,
      "Flaw": 2724,
      "Ġbicy": 2725,
      "Purported": 2726,
      "Ġlabeled": 2727,
      "Ġoccurrences": 2728,
      "ĠINVALID": 2729,
      "ĠAssign": 2730,
      "Flawed": 2731,
      "ons": 2732,
      "enem": 2733,
      "Ġmi": 2734,
      "sto": 2735,
      "ĠThis": 2736,
      "ĠTenem": 2737,
      "ĠEsto": 2738,
      "ĠNous": 2739,
      "Ġavons": 2740,
      "ĠTenemos": 2741,
      "Rem": 2742,
      "aica": 2743,
      "dex": 2744,
      "licate": 2745,
      "Ġdup": 2746,
      "Ġindex": 2747,
      "seen": 2748,
      "amaica": 2749,
      "serving": 2750,
      "Ġgoat": 2751,
      "Ġcounterexample": 2752,
      "Ġpresent": 2753,
      "Ġpreserving": 2754,
      "Ġelements": 2755,
      "Removes": 2756,
      "Ġduplicate": 2757,
      "Ġgoldfish": 2758,
      "Ġtengo": 2759,
      "Ġpas": 2760,
      "Ġduck": 2761,
      "True": 2762,
      "Ġside": 2763,
      "set": 2764,
      "Ġcars": 2765,
      "31": 2766,
      "Ġoval": 2767,
      "ira": 2768,
      "Ġalligator": 2769,
      "Ġmammals": 2770,
      "Mer": 2771,
      "iou": 2772,
      "Ġteach": 2773,
      "owel": 2774,
      "Ġvowel": 2775,
      "Ġbeen": 2776,
      "Ġnovels": 2777,
      "Ġcharacters": 2778,
      "aeiou": 2779,
      "IOU": 2780,
      "AEIOU": 2781,
      "Merges": 2782,
      "Ġteachers": 2783,
      "aeiouAEIOU": 2784,
      "Gen": 2785,
      "Tr": 2786,
      "][": 2787,
      "]]": 2788,
      "col": 2789,
      "new": 2790,
      "eral": 2791,
      "Ġrepre": 2792,
      "Ġmoth": 2793,
      "Ġ[[": 2794,
      "Ġfacts": 2795,
      "angular": 2796,
      "Ġcols": 2797,
      "anspos": 2798,
      "lists": 2799,
      "Ġrectangular": 2800,
      "sented": 2801,
      "General": 2802,
      "Transpos": 2803,
      "cols": 2804,
      "Ġrepresented": 2805,
      "Transposes": 2806,
      "ese": 2807,
      "amele": 2808,
      "rael": 2809,
      "Ġplanets": 2810,
      "ameleon": 2811,
      "ĠIran": 2812,
      "ĠJamaica": 2813,
      "owed": 2814,
      "())": 2815,
      "Geographically": 2816,
      "Ġdict": 2817,
      "ĠTur": 2818,
      "iles": 2819,
      "Ġcounter": 2820,
      "Ġadd": 2821,
      "If": 2822,
      "rÃ©": 2823,
      "tÃ©": 2824,
      "Ġache": 2825,
      "ought": 2826,
      "Ġbought": 2827,
      "Ġtoad": 2828,
      "Ġtry": 2829,
      "ĠComprÃ©": 2830,
      "ĠachetÃ©": 2831,
      "low": 2832,
      "ors": 2833,
      "ctors": 2834,
      "arrow": 2835,
      "Ġchameleon": 2836,
      "Sorts": 2837,
      "cend": 2838,
      "man": 2839,
      "vest": 2840,
      "arr": 2841,
      "arvest": 2842,
      "ĠĠĠĠĠĠĠĠĠ": 2843,
      "ĊĠĠĠĠĠĠĠĠĠĠĠĠĠĠĠ": 2844,
      "Ġascend": 2845,
      "arvestman": 2846,
      "Ġascending": 2847,
      "ect": 2848,
      "ject": 2849,
      "oi": 2850,
      "anoi": 2851,
      "ĠIsrael": 2852,
      "gy": 2853,
      "rite": 2854,
      "ĠWrite": 2855,
      "Ġaccumul": 2856,
      "gypt": 2857,
      "Ġaccumulation": 2858,
      "[-": 2859,
      "first": 2860,
      "size": 2861,
      "Ġpush": 2862,
      "Ġpee": 2863,
      "Ġlas": 2864,
      "Ġpop": 2865,
      "ĠPython": 2866,
      "Ġpeek": 2867,
      "Ġlast": 2868,
      "33": 2869,
      "Ġ84": 2870,
      "bots": 2871,
      "kay": 2872,
      "Ġfield": 2873,
      "kayak": 2874,
      "nested": 2875,
      "tens": 2876,
      "attens": 2877,
      "Ġnested": 2878,
      "Ġharvestman": 2879,
      "Ġ58": 2880,
      "Ġsparrow": 2881,
      "Ġlevel": 2882,
      "ĠStates": 2883,
      "Flattens": 2884,
      "Ġ_": 2885,
      "Ġli": 2886,
      "Ġnth": 2887,
      "ster": 2888,
      "exed": 2889,
      "indexed": 2890,
      "ĠHanoi": 2891,
      "ĠFibonacci": 2892,
      "obster": 2893,
      "aud": 2894,
      "hic": 2895,
      "vehic": 2896,
      "ĠArabia": 2897,
      "icians": 2898,
      "audi": 2899,
      "vehicles": 2900,
      "Race": 2901,
      "car": 2902,
      "case": 2903,
      "rad": 2904,
      "sens": 2905,
      "Ġtalk": 2906,
      "insens": 2907,
      "heep": 2908,
      "Ġsame": 2909,
      "orocc": 2910,
      "itive": 2911,
      "Ġremin": 2912,
      "Ġask": 2913,
      "Ġshare": 2914,
      "Ġbackward": 2915,
      "Ġreads": 2916,
      "noon": 2917,
      "Ġforwards": 2918,
      "Ġwhether": 2919,
      "Ġreptiles": 2920,
      "lower": 2921,
      "Racecar": 2922,
      "radar": 2923,
      "insensitive": 2924,
      "orocco": 2925,
      "Ġreminder": 2926,
      "Ġbackwards": 2927,
      "hana": 2928,
      "ĠEgypt": 2929,
      "apple": 2930,
      "never": 2931,
      "Ġwhenever": 2932,
      "Re": 2933,
      "lab": 2934,
      "ses": 2935,
      "Ġrelation": 2936,
      "icing": 2937,
      "verses": 2938,
      "Ġdoctors": 2939,
      "Ġcollab": 2940,
      "ship": 2941,
      "Ġconsider": 2942,
      "Ġslicing": 2943,
      "Reverses": 2944,
      "Ġrelationship": 2945,
      "Ġcollabor": 2946,
      ":]:": 2947,
      "rid": 2948,
      "erat": 2949,
      "esh": 2950,
      "Ġlargest": 2951,
      "Ġiterat": 2952,
      "ĠSu": 2953,
      "Ġtermite": 2954,
      "Ġscanning": 2955,
      "ures": 2956,
      "ladesh": 2957,
      "Ġiteratively": 2958,
      "uana": 2959,
      "icken": 2960,
      "Ġpolo": 2961,
      ":]": 2962,
      "Like": 2963,
      "Rot": 2964,
      "yers": 2965,
      "Ġtuna": 2966,
      "Ġfoc": 2967,
      "Ġlef": 2968,
      "ĠAb": 2969,
      "Ġ90": 2970,
      "ific": 2971,
      "Ġspecific": 2972,
      "Ġpositions": 2973,
      "Rotates": 2974,
      "Ġfocus": 2975,
      "Ġleft": 2976,
      "Ġ66": 2977,
      "Ġchecklist": 2978,
      "ĠChina": 2979,
      "Ġlobster": 2980,
      "ases": 2981,
      "Ġislands": 2982,
      "olle": 2983,
      "Ġwhen": 2984,
      "Some": 2985,
      "based": 2986,
      "Ġsure": 2987,
      "ening": 2988,
      "arrass": 2989,
      "Ġgive": 2990,
      "Ġemb": 2991,
      "reatening": 2992,
      "Ġworking": 2993,
      "Ġbuild": 2994,
      "ĠThreatening": 2995,
      "Ġevidence": 2996,
      "Ġperson": 2997,
      "arrassing": 2998,
      "Ġembarrassing": 2999,
      "dom": 3000,
      "ĠKingdom": 3001,
      "ganda": 3002,
      "Ġsheep": 3003,
      "Ġpass": 3004,
      "eful": 3005,
      "ĠSaudi": 3006,
      "Ġ70": 3007,
      "Ġuseful": 3008,
      "ĠMorocco": 3009,
      "Ġchicken": 3010,
      "rotor": 3011,
      "ĠGhana": 3012,
      "Ġconstructive": 3013,
      "An": 3014,
      "Of": 3015,
      "Ġig": 3016,
      "eru": 3017,
      "ĠPeru": 3018,
      "Ġ96": 3019,
      "Ġfree": 3020,
      "Ġrobots": 3021,
      "Ġcourse": 3022,
      "ĠBangladesh": 3023,
      "Ġiguana": 3024,
      "Ġinvit": 3025,
      "Ġinvite": 3026,
      "cles": 3027,
      "Ġmusicians": 3028,
      "Ġvehicles": 3029,
      "plain": 3030,
      "Ġexplain": 3031,
      "zer": 3032,
      "itzer": 3033,
      "Ġdigit": 3034,
      "eger": 3035,
      "ĠSh": 3036,
      "Ġ//": 3037,
      "Ġinteger": 3038,
      "Ġdecimal": 3039,
      "itzerland": 3040,
      "Ġdigits": 3041,
      "ham": 3042,
      "ality": 3043,
      "Ġpanda": 3044,
      "irham": 3045,
      "Ġtrial": 3046,
      "Ġdivision": 3047,
      "Ġprimality": 3048,
      "Sure": 3049,
      "wyers": 3050,
      "Ġundist": 3051,
      "Ġlawyers": 3052,
      "Ġteams": 3053,
      "Ġundistributed": 3054,
      "Ġ62": 3055,
      "ĠUganda": 3056,
      "ĠRussia": 3057,
      "nid": 3058,
      "Ġcat": 3059,
      "achnid": 3060,
      "Ġarachnid": 3061,
      "ĠDh": 3062,
      "ĠDirham": 3063,
      "Ġmetals": 3064,
      "iraffe": 3065,
      "civ": 3066,
      "zil": 3067,
      "Ġcats": 3068,
      "Ġgases": 3069,
      "ĠCo": 3070,
      "razil": 3071,
      "illing": 3072,
      "civic": 3073,
      "58": 3074,
      "bs": 3075,
      "ners": 3076,
      "isor": 3077,
      "Ġdark": 3078,
      "Ġbur": 3079,
      "Ġgreat": 3080,
      "clide": 3081,
      "ĠEuclide": 3082,
      "Ġdivisor": 3083,
      "Ġcorners": 3084,
      "Ġwebs": 3085,
      "Ġcomputers": 3086,
      "ĠSwitzerland": 3087,
      "Ġburrows": 3088,
      "Ġgreatest": 3089,
      "ĠEuclidean": 3090,
      "hid": 3091,
      "pia": 3092,
      "thio": 3093,
      "ago": 3094,
      "Ġallowed": 3095,
      "Ġaphid": 3096,
      "ĠBolivia": 3097,
      "Ġbicycles": 3098,
      "thiopia": 3099,
      "kton": 3100,
      "Ġstars": 3101,
      "Ġplankton": 3102,
      "ness": 3103,
      "itness": 3104,
      "Ġwitness": 3105,
      "Ġgiraffe": 3106,
      "ids": 3107,
      "Ġ47": 3108,
      "quids": 3109,
      "Ġpoems": 3110,
      "ippines": 3111,
      "hilippines": 3112,
      "Ġeas": 3113,
      "Counting": 3114,
      "Ġlonger": 3115,
      "ĠShilling": 3116,
      "uay": 3117,
      "Ġhig": 3118,
      "ĠDong": 3119,
      "uguay": 3120,
      "ĠVietnamese": 3121,
      "Ġ43": 3122,
      "ucture": 3123,
      "Ġstructure": 3124,
      "EQ": 3125,
      "NS": 3126,
      "UENT": 3127,
      "otten": 3128,
      "Ġruns": 3129,
      "ĠCONS": 3130,
      "Ġdenying": 3131,
      "EQUENT": 3132,
      "ĠCONSEQUENT": 3133,
      "ĠGermany": 3134,
      "estro": 3135,
      "Ġbear": 3136,
      "Ġbefore": 3137,
      "uration": 3138,
      "ĠEthiopia": 3139,
      "iguration": 3140,
      "ĠCity": 3141,
      "ĠBrazil": 3142,
      "Ġexport": 3143,
      "Ġbirds": 3144,
      "Ġconfiguration": 3145,
      "Ġdocumented": 3146,
      "42": 3147,
      "70": 3148,
      "ĠPhilippines": 3149,
      "Ġ86": 3150,
      "riv": 3151,
      "ercing": 3152,
      "orse": 3153,
      "Ġpriv": 3154,
      "ulative": 3155,
      "Ġstra": 3156,
      "ightfor": 3157,
      "asketball": 3158,
      "ipulative": 3159,
      "Ġmanipulative": 3160,
      "Ġmerits": 3161,
      "Ġsignature": 3162,
      "Ġconfidence": 3163,
      "Ġrefused": 3164,
      "Ġproposal": 3165,
      "purple": 3166,
      "ĠUruguay": 3167,
      "ĠCoercing": 3168,
      "Ġprivate": 3169,
      "Ġstraightfor": 3170,
      "Ġstraightforward": 3171,
      "Ġsol": 3172,
      "phant": 3173,
      "80": 3174,
      "stric": 3175,
      "Ġ52": 3176,
      "strich": 3177,
      "gard": 3178,
      "ken": 3179,
      "Ġtell": 3180,
      "Ġfab": 3181,
      "Ġdestro": 3182,
      "Ġlos": 3183,
      "Ġreal": 3184,
      "Ġregard": 3185,
      "use": 3186,
      "uring": 3187,
      "amation": 3188,
      "efuse": 3189,
      "Ġeveryone": 3190,
      "Ġdefamation": 3191,
      "ricate": 3192,
      "ĠRefuse": 3193,
      "Ġbroken": 3194,
      "Ġhonestly": 3195,
      "ĠManufacturing": 3196,
      "Ġfabricate": 3197,
      "Ġdestroy": 3198,
      "Ġloses": 3199,
      "Ġregardless": 3200,
      "oid": 3201,
      "pag": 3202,
      "Ġtelling": 3203,
      "Ġauth": 3204,
      "hell": 3205,
      "orized": 3206,
      "aper": 3207,
      "iger": 3208,
      "ĠSelf": 3209,
      "Ġonto": 3210,
      "clos": 3211,
      "Ġmyself": 3212,
      "Ġyourself": 3213,
      "Ġdisclos": 3214,
      "propag": 3215,
      "Ġsurvival": 3216,
      "oala": 3217,
      "Ġavoid": 3218,
      "Ġevade": 3219,
      "Ġrefuse": 3220,
      "ĠTurkey": 3221,
      "Ġauthorized": 3222,
      "hello": 3223,
      "Ġdisclosure": 3224,
      "propagation": 3225,
      "mat": 3226,
      "rag": 3227,
      "onfly": 3228,
      "Ġhorse": 3229,
      "matter": 3230,
      "ragonfly": 3231,
      "Every": 3232,
      "Ġcould": 3233,
      "orang": 3234,
      "Ġ144": 3235,
      "orange": 3236,
      "ahil": 3237,
      "ĠTher": 3238,
      "Ġconnect": 3239,
      "ĠCounterexample": 3240,
      "Ġouter": 3241,
      "Ġdistributed": 3242,
      "Ġliquids": 3243,
      "ahili": 3244,
      "ĠTherefore": 3245,
      "57": 3246,
      "iday": 3247,
      "eting": 3248,
      "ĠMond": 3249,
      "Ġmeeting": 3250,
      "Ġelephant": 3251,
      "ĠFriday": 3252,
      "ĠMonday": 3253,
      "53": 3254,
      "Ġtiger": 3255,
      "Ġostrich": 3256,
      "Ġmight": 3257,
      "Ġrul": 3258,
      "Ġ94": 3259,
      "Ġrules": 3260,
      "yell": 3261,
      "Ġ72": 3262,
      "yellow": 3263,
      "co": 3264,
      "Ġkoala": 3265,
      "erman": 3266,
      "ĠSwahili": 3267,
      "ban": 3268,
      "rel": 3269,
      "Ġcrow": 3270,
      "Ġdragonfly": 3271,
      "Ġ69": 3272,
      "irrel": 3273,
      "quirrel": 3274,
      "Ġbee": 3275,
      "banana": 3276,
      "NOPE": 3277,
      "ious": 3278,
      "ĊĊ": 3279,
      "aling": 3280,
      "cealing": 3281,
      "Ġconcealing": 3282,
      "ndermining": 3283,
      "Ġprocess": 3284,
      "iolation": 3285,
      "ĠUndermining": 3286,
      "Ġviolation": 3287,
      "Ġplanned": 3288,
      "Ġpreserve": 3289,
      "Ġserious": 3290,
      "Ġoperation": 3291,
      "arsaw": 3292,
      "Ġoperators": 3293,
      "nou": 3294,
      "nce": 3295,
      "Ġperman": 3296,
      "enac": 3297,
      "Ġannou": 3298,
      "Ġruin": 3299,
      "stand": 3300,
      "Ġforce": 3301,
      "unch": 3302,
      "ently": 3303,
      "llout": 3304,
      "Ġproject": 3305,
      "ĠMenac": 3306,
      "Ġunderstand": 3307,
      "Ġdisput": 3308,
      "Ġlaunch": 3309,
      "Ġrespectful": 3310,
      "Ġrollout": 3311,
      "Ġproposing": 3312,
      "Ġphased": 3313,
      "ncement": 3314,
      "Ġpermanently": 3315,
      "Ġannouncement": 3316,
      "ĠMenacing": 3317,
      "Ġunderstands": 3318,
      "Ġdispute": 3319,
      "oct": 3320,
      "ĠPolish": 3321,
      "ober": 3322,
      "october": 3323,
      "dermining": 3324,
      "fair": 3325,
      "Ġdish": 3326,
      "Ġhidd": 3327,
      "Ġ59": 3328,
      "Ġundermining": 3329,
      "Ġunfair": 3330,
      "Ġdishonest": 3331,
      "Ġhidden": 3332,
      "Ġunfairly": 3333,
      "44": 3334,
      "va": 3335,
      "Ġam": 3336,
      "Ġche": 3337,
      "xing": 3338,
      "Ġbug": 3339,
      "ĠWarsaw": 3340,
      "Ġfixing": 3341,
      "olley": 3342,
      "tort": 3343,
      "Ġsquirrel": 3344,
      "olut": 3345,
      "Ġhapp": 3346,
      "Ġextort": 3347,
      "ĠForcing": 3348,
      "Ġabsolut": 3349,
      "Ġtransferring": 3350,
      "Ġhappen": 3351,
      "Ġextortion": 3352,
      "Ġabsolutely": 3353,
      "CE": 3354,
      "DENT": 3355,
      "ECE": 3356,
      "ming": 3357,
      "Ġaff": 3358,
      "Ġpon": 3359,
      "ĠANT": 3360,
      "adrid": 3361,
      "irming": 3362,
      "ĠIndia": 3363,
      "ECEDENT": 3364,
      "Ġaffirming": 3365,
      "ĠANTECEDENT": 3366,
      "gad": 3367,
      "Ġ68": 3368,
      "ĠSuva": 3369,
      "gadget": 3370,
      "utch": 3371,
      "wid": 3372,
      "oma": 3373,
      "ĠMadrid": 3374,
      "widget": 3375,
      "ĠRup": 3376,
      "64": 3377,
      "Ġ87": 3378,
      "Ġ77": 3379,
      "ave": 3380,
      "ĠDutch": 3381,
      "ĠAbu": 3382,
      "lot": 3383,
      "Ġmo": 3384,
      "Ġtries": 3385,
      "loty": 3386,
      "54": 3387,
      "tinent": 3388,
      "ĠZloty": 3389,
      "Ġfas": 3390,
      "Ġ67": 3391,
      "Ġfaster": 3392,
      "aur": 3393,
      "Ġsocc": 3394,
      "Ġrestaur": 3395,
      "Ġsoccer": 3396,
      "Ġrestaurant": 3397,
      "Ġbonito": 3398,
      "Ġ88": 3399,
      "Ġ76": 3400,
      "48": 3401,
      "Ġmost": 3402,
      "antiago": 3403,
      "Ġmore": 3404,
      "Ġ75": 3405,
      "Ġ120": 3406,
      "ĠKr": 3407,
      "Ġbat": 3408,
      "47": 3409,
      "85": 3410,
      "rog": 3411,
      "ĠSantiago": 3412,
      "gcd": 3413,
      "lo": 3414,
      "arac": 3415,
      "Ġtruth": 3416,
      "Ġexists": 3417,
      "Ġsports": 3418,
      "Ġsolution": 3419,
      "aracas": 3420,
      "90": 3421,
      "Ġ65": 3422,
      "ĠCaracas": 3423,
      "43": 3424,
      "60": 3425,
      "Ġfrog": 3426,
      "ĠÂ¬(Â¬": 3427,
      "Ġ89": 3428,
      "Ġ((Â¬": 3429,
      "55": 3430,
      "Ġci": 3431,
      "Ġgolf": 3432,
      "Ġ63": 3433,
      "ĠÂ¬Â¬(": 3434,
      "ellington": 3435,
      "63": 3436,
      "pital": 3437,
      "Ġprem": 3438,
      "oto": 3439,
      "Ġchos": 3440,
      "Ġcheaper": 3441,
      "Ġpremium": 3442,
      "Ġchosen": 3443,
      "ek": 3444,
      "mint": 3445,
      "Ġweek": 3446,
      "olleyball": 3447,
      "minton": 3448,
      "abi": 3449,
      "ĠWellington": 3450,
      "Ġbelle": 3451,
      "ĠManufacture": 3452,
      "ĠDhabi": 3453,
      "ĠKrone": 3454,
      "El": 3455,
      "ination": 3456,
      "imination": 3457,
      "uese": 3458,
      "Elimination": 3459,
      "ĠRupee": 3460,
      "Ġ41": 3461,
      "lin": 3462,
      "ual": 3463,
      "umpur": 3464,
      "ĠLumpur": 3465,
      "ĠPortuguese": 3466,
      "uala": 3467,
      "Ġbasketball": 3468,
      "Ġ324": 3469,
      "Ġ169": 3470,
      "ĠKuala": 3471,
      "Can": 3472,
      "Ġfly": 3473,
      "ĠAustria": 3474,
      "ĠGo": 3475,
      "ĠBolivar": 3476,
      "tball": 3477,
      "oftball": 3478,
      "45": 3479,
      "68": 3480,
      "lam": 3481,
      "abad": 3482,
      "lamabad": 3483,
      "Ġbeau": 3484,
      "ĠIslamabad": 3485,
      "81": 3486,
      "git": 3487,
      "inggit": 3488,
      "Ġmat": 3489,
      "sterd": 3490,
      "odoma": 3491,
      "Ġnewt": 3492,
      "sterdam": 3493,
      "93": 3494,
      "AU": 3495,
      "GY": 3496,
      "OGY": 3497,
      "TOL": 3498,
      "ĠTAU": 3499,
      "Ġ74": 3500,
      "Ġ113": 3501,
      "TOLOGY": 3502,
      "ĠTAUTOLOGY": 3503,
      "Ask": 3504,
      "ita": 3505,
      "Ġ51": 3506,
      "ĠDodoma": 3507,
      "ĠQu": 3508,
      "ĠRinggit": 3509,
      "ĠAmsterdam": 3510,
      "Ġbonita": 3511,
      "96": 3512,
      "Read": 3513,
      "Ġfew": 3514,
      "Ġexamples": 3515,
      "Ġonce": 3516,
      "portance": 3517,
      "Ġclaim": 3518,
      "Ġimportance": 3519,
      "Ġsummary": 3520,
      "ĠLeave": 3521,
      "Ġsupporting": 3522,
      "av": 3523,
      "Ġland": 3524,
      "apt": 3525,
      "Ġponds": 3526,
      "Ġmoist": 3527,
      "Most": 3528,
      "bian": 3529,
      "ibian": 3530,
      "Ġwater": 3531,
      "cean": 3532,
      "phibian": 3533,
      "Ġcrusta": 3534,
      "Ġamphibian": 3535,
      "Ġcrustacean": 3536,
      "Maps": 3537,
      "Prices": 3538,
      "Ġ108": 3539,
      "gan": 3540,
      "ooth": 3541,
      "rent": 3542,
      "repare": 3543,
      "Ġcur": 3544,
      "vering": 3545,
      "ĠPrepare": 3546,
      "Ġgoes": 3547,
      "Ġeverything": 3548,
      "Ġcovering": 3549,
      "Ġsmooth": 3550,
      "Ġorgan": 3551,
      "Ġneeded": 3552,
      "Ġcurrent": 3553,
      "Ġsmoothly": 3554,
      "Ġorganize": 3555,
      "led": 3556,
      "ock": 3557,
      "press": 3558,
      "ven": 3559,
      "Ġack": 3560,
      "Ġcreat": 3561,
      "Ġwish": 3562,
      "Ġconven": 3563,
      "nowled": 3564,
      "Ġexpress": 3565,
      "teous": 3566,
      "Ġalgae": 3567,
      "Ġpolite": 3568,
      "Ġcourteous": 3569,
      "Ġasks": 3570,
      "Ġacknowled": 3571,
      "Ġcreatures": 3572,
      "Ġconvenient": 3573,
      "Ġexpresses": 3574,
      "Ġacknowledges": 3575,
      "People": 3576,
      "come": 3577,
      "love": 3578,
      "lived": 3579,
      "Ġtow": 3580,
      "Ġtend": 3581,
      "rete": 3582,
      "Ġwant": 3583,
      "Ġbare": 3584,
      "Ġbetween": 3585,
      "Ġmoves": 3586,
      "Ġglove": 3587,
      "ader": 3588,
      "ishable": 3589,
      "aka": 3590,
      "Ġoutcome": 3591,
      "Ġleans": 3592,
      "Ġbroader": 3593,
      "Ġfinishable": 3594,
      "Ġconcrete": 3595,
      "Ġshared": 3596,
      "Ġcollaboration": 3597,
      "Ġcollaborative": 3598,
      "Ġfocusing": 3599,
      "Ġinvites": 3600,
      "ĠGoals": 3601,
      "Ġtoward": 3602,
      "66": 3603,
      "Linguistically": 3604,
      "gotten": 3605,
      "Ġcapt": 3606,
      "atable": 3607,
      "Ġrepe": 3608,
      "Ġrout": 3609,
      "Ġforgotten": 3610,
      "Ġnothing": 3611,
      "Ġcost": 3612,
      "Ġ180": 3613,
      "Ġmissing": 3614,
      "Ġhigh": 3615,
      "Ġcaptures": 3616,
      "Ġrepeatable": 3617,
      "Ġroutine": 3618,
      "72": 3619,
      "83": 3620,
      "92": 3621,
      "All": 3622,
      "Ġpair": 3623,
      "Ġoffer": 3624,
      "estion": 3625,
      "ĠPound": 3626,
      "structive": 3627,
      "Constructive": 3628,
      "Ġsuggestion": 3629,
      "Ġfocuses": 3630,
      "Ġpairs": 3631,
      "Ġoffered": 3632,
      "65": 3633,
      "Ġ53": 3634,
      "Ġbaseball": 3635,
      "ĠGerman": 3636,
      "ber": 3637,
      "gth": 3638,
      "rame": 3639,
      "yle": 3640,
      "Ġframe": 3641,
      "Ġpu": 3642,
      "Ġbring": 3643,
      "Ġmes": 3644,
      "Ġgrow": 3645,
      "iced": 3646,
      "Ġstren": 3647,
      "Ġstyle": 3648,
      "Ġnoticed": 3649,
      "Ġchance": 3650,
      "ĠLet": 3651,
      "Ġoutline": 3652,
      "Ġsummarize": 3653,
      "Ġkindly": 3654,
      "berra": 3655,
      "gths": 3656,
      "Ġgrowth": 3657,
      "Ġstrengths": 3658,
      "51": 3659,
      "aris": 3660,
      "Ġ162": 3661,
      "95": 3662,
      "oot": 3663,
      "Ġ121": 3664,
      "Ġshoot": 3665,
      "94": 3666,
      "que": 3667,
      "weg": 3668,
      "ĠRome": 3669,
      "Ġ256": 3670,
      "ĠCanberra": 3671,
      "wegian": 3672,
      "88": 3673,
      "ones": 3674,
      "Ġhoc": 3675,
      "Ġhockey": 3676,
      "oic": 3677,
      "isbon": 3678,
      "Ġfri": 3679,
      "Ġlay": 3680,
      "Ġrack": 3681,
      "endly": 3682,
      "Ġchoic": 3683,
      "Ġfreely": 3684,
      "ĠNorwegian": 3685,
      "Ġdecide": 3686,
      "Ġinformed": 3687,
      "Ġ576": 3688,
      "Ġinvitation": 3689,
      "Ġfriendly": 3690,
      "Ġlaying": 3691,
      "Ġracket": 3692,
      "Ġchoice": 3693,
      "Numb": 3694,
      "Ġver": 3695,
      "Ġput": 3696,
      "Ġeasier": 3697,
      "Number": 3698,
      "Ġverb": 3699,
      "arb": 3700,
      "ĠIndones": 3701,
      "75": 3702,
      "nia": 3703,
      "vnia": 3704,
      "Ġwell": 3705,
      "Ġgot": 3706,
      "Ġ85": 3707,
      "Ġscan": 3708,
      "ĠLisbon": 3709,
      "ryvnia": 3710,
      "Ġvolleyball": 3711,
      "Ġshort": 3712,
      "Ġworks": 3713,
      "Ġblock": 3714,
      "Ġbadminton": 3715,
      "Ġeasy": 3716,
      "Ġblockers": 3717,
      "ccord": 3718,
      "slo": 3719,
      "Ġsoftball": 3720,
      "Ġ729": 3721,
      "ccording": 3722,
      "af": 3723,
      "Ġsaf": 3724,
      "Ġnotif": 3725,
      "Biologically": 3726,
      "Ġcopi": 3727,
      "Ġappro": 3728,
      "Ġclearly": 3729,
      "Ġsafe": 3730,
      "Ġnotify": 3731,
      "Ġcopied": 3732,
      "Ġapprove": 3733,
      "aht": 3734,
      "omb": 3735,
      "ĠHryvnia": 3736,
      "ĠThai": 3737,
      "nish": 3738,
      "ĠOslo": 3739,
      "ĠGreek": 3740,
      "Ġfields": 3741,
      "41": 3742,
      "file": 3743,
      "iers": 3744,
      "ontinent": 3745,
      "ĠCapital": 3746,
      "ĠCurrency": 3747,
      "ĠContinent": 3748,
      "Ġ98": 3749,
      "Ġprofile": 3750,
      "ĠLanguage": 3751,
      "Ġdefining": 3752,
      "Country": 3753,
      "avana": 3754,
      "Glad": 3755,
      "kok": 3756,
      "ert": 3757,
      "Ġhos": 3758,
      "ĠBaht": 3759,
      "Ġ720": 3760,
      "uctively": 3761,
      "Ġ150": 3762,
      "Ġdesert": 3763,
      "Ġ225": 3764,
      "Ġconstructively": 3765,
      "Ġphoto": 3766,
      "Ġciel": 3767,
      "Ġhospital": 3768,
      "ki": 3769,
      "inar": 3770,
      "inki": 3771,
      "Ġ82": 3772,
      "elsinki": 3773,
      "ĠItalian": 3774,
      "ĠAlgiers": 3775,
      "ĠFinnish": 3776,
      "tended": 3777,
      "Ġpeople": 3778,
      "ĠBe": 3779,
      "Ġattended": 3780,
      "ĠHavana": 3781,
      "Ġjour": 3782,
      "Ġslipped": 3783,
      "46": 3784,
      "86": 3785,
      "tre": 3786,
      "Ãª": 3787,
      "cept": 3788,
      "eper": 3789,
      "ĠDinar": 3790,
      "keeper": 3791,
      "except": 3792,
      "ĠHelsinki": 3793,
      "Ġgoalkeeper": 3794,
      "ĠBangkok": 3795,
      "option": 3796,
      "pact": 3797,
      "ting": 3798,
      "Ġtone": 3799,
      "Ġwide": 3800,
      "Ġrisk": 3801,
      "ĠTake": 3802,
      "Ġgetting": 3803,
      "Ġoutage": 3804,
      "Ġ(Â¬(": 3805,
      "Ġimpact": 3806,
      "Ġadoption": 3807,
      "Ġrecent": 3808,
      "Ġhigher": 3809,
      "08": 3810,
      "uch": 3811,
      "Ġdet": 3812,
      "Ġmuch": 3813,
      "))))": 3814,
      "Ġspent": 3815,
      "Ġjard": 3816,
      "Ġreader": 3817,
      "Ġreading": 3818,
      "Ġdetail": 3819,
      "49": 3820,
      "Ġuser": 3821,
      "Ġtake": 3822,
      "ino": 3823,
      "oner": 3824,
      "ash": 3825,
      "isted": 3826,
      "Ġgotten": 3827,
      "egarding": 3828,
      "Ġsooner": 3829,
      "Ġcrash": 3830,
      "Ġpersisted": 3831,
      "ĠIndonesia": 3832,
      "Ġusers": 3833,
      "52": 3834,
      "Ã´": 3835,
      "ished": 3836,
      "Ġ73": 3837,
      "Ġdistingu": 3838,
      "Ġdistinguished": 3839,
      "rain": 3840,
      "Ġnetball": 3841,
      "rainian": 3842,
      "ya": 3843,
      "enya": 3844,
      "Ġgame": 3845,
      "Ġ900": 3846,
      "endium": 3847,
      "Ġcompendium": 3848,
      "ĠUkrainian": 3849,
      "Animal": 3850,
      "98": 3851,
      "otball": 3852,
      "ican": 3853,
      "Ġ400": 3854,
      "ĠBern": 3855,
      "Ġwho": 3856,
      "Ġ361": 3857,
      "ĠSwed": 3858,
      "Ġfootball": 3859,
      "Ġdistinctively": 3860,
      "320": 3861,
      "du": 3862,
      "iy": 3863,
      "ns": 3864,
      "tta": 3865,
      "wa": 3866,
      "ĠAccording": 3867,
      "ublin": 3868,
      "thens": 3869,
      "ttawa": 3870,
      "Ã³n": 3871,
      "ĠAthens": 3872,
      "ĠFrench": 3873,
      "ĠParis": 3874,
      "Ġ106": 3875,
      "ĠDublin": 3876,
      "ĠRiy": 3877,
      "ĠKenya": 3878,
      "ĠOne": 3879,
      "ĠOttawa": 3880,
      "ĠUrdu": 3881,
      "ĠQuito": 3882,
      "AO": 3883,
      "both": 3884,
      "currency": 3885,
      "Ġexclus": 3886,
      "Ġcontested": 3887,
      "Ġequip": 3888,
      "ches": 3889,
      "Ġmatches": 3890,
      "Ġexclusive": 3891,
      "Ġequipment": 3892,
      "Help": 3893,
      "ij": 3894,
      "otel": 3895,
      "Ġhotel": 3896,
      "Ġ314": 3897,
      "Ġ61": 3898,
      "ĠWon": 3899,
      "Ġ486": 3900,
      "ijing": 3901,
      "capital": 3902,
      "Ġord": 3903,
      "left": 3904,
      "Ġ79": 3905,
      "like": 3906,
      "ila": 3907,
      "Ġ97": 3908,
      "Ġ441": 3909,
      "ĠBeijing": 3910,
      "So": 3911,
      "erus": 3912,
      "alem": 3913,
      "Ġhow": 3914,
      "Ġ625": 3915,
      "Ġunit": 3916,
      "ĠManila": 3917,
      "erusalem": 3918,
      "enmark": 3919,
      "Ġ196": 3920,
      "teg": 3921,
      "Ġ92": 3922,
      "Ġtrain": 3923,
      "ĠRegarding": 3924,
      "Ġ188": 3925,
      "ĠJerusalem": 3926,
      "tegd": 3927,
      "yo": 3928,
      "okyo": 3929,
      "Ġ104": 3930,
      "arta": 3931,
      "Ġ138": 3932,
      "187": 3933,
      "Ġ5040": 3934,
      "Ġdel": 3935,
      "Ġlac": 3936,
      "Ġbud": 3937,
      "ĠTokyo": 3938,
      "ivery": 3939,
      "Ġoverrun": 3940,
      "Ġ40320": 3941,
      "ĠSweden": 3942,
      "Ġdelivery": 3943,
      "Ġbudget": 3944,
      "61": 3945,
      "kel": 3946,
      "hekel": 3947,
      "ape": 3948,
      "ĠDenmark": 3949,
      "Ġshape": 3950,
      "ĠDhaka": 3951,
      "ĠShekel": 3952,
      "Ġ784": 3953,
      "eh": 3954,
      "gium": 3955,
      "elgium": 3956,
      "ĠEach": 3957,
      "Ġthrow": 3958,
      "Ġ130": 3959,
      "continent": 3960,
      "ehran": 3961,
      "uble": 3962,
      "Ġ243": 3963,
      "Ġ380": 3964,
      "ĠKorean": 3965,
      "ison": 3966,
      "Ġdrib": 3967,
      "ĠSol": 3968,
      "Ġ95": 3969,
      "Ġdribble": 3970,
      "84": 3971,
      "ĠTehran": 3972,
      "Ġ128": 3973,
      "ĠRuble": 3974,
      "ĠUnlike": 3975,
      "97": 3976,
      "language": 3977,
      "asure": 3978,
      "arin": 3979,
      "ĠBelgium": 3980,
      "andarin": 3981,
      "ersian": 3982,
      "Ġmeasure": 3983,
      "ccess": 3984,
      "Ġ131": 3985,
      "Ġ175": 3986,
      "airo": 3987,
      "Ġ484": 3988,
      "Ġscored": 3989,
      "Ġmeasured": 3990,
      "cor": 3991,
      "pon": 3992,
      "ĠCairo": 3993,
      "Ġ93": 3994,
      "128": 3995,
      "Ġ157": 3996,
      "Ġhandball": 3997,
      "Ġoppon": 3998,
      "Ġopponents": 3999,
      "Ġaim": 4000,
      "ĠPersian": 4001,
      "ĠMandarin": 4002,
      "Ġ289": 4003,
      "bject": 4004,
      "hÃ´": 4005,
      "right": 4006,
      "erican": 4007,
      "Ġobject": 4008,
      "Ġobjective": 4009,
      "656": 4010,
      "iÃ": 4011,
      "¨re": 4012,
      "Ġcome": 4013,
      "Ġriv": 4014,
      "Ġriver": 4015,
      "ĠrÃŃ": 4016,
      "ĠAE": 4017,
      "Ġmesa": 4018,
      "iÃ¨re": 4019,
      "ĠriviÃ¨re": 4020,
      "ĠrÃŃo": 4021,
      "67": 4022,
      "dd": 4023,
      "uit": 4024,
      "yang": 4025,
      "Ġnight": 4026,
      "Ġnuit": 4027,
      "aba": 4028,
      "Ġ119": 4029,
      "ongyang": 4030,
      "Ġnoche": 4031,
      "ĠAbaba": 4032,
      "Ġ1809": 4033,
      "ddis": 4034,
      "vide": 4035,
      "onte": 4036,
      "icit": 4037,
      "ĠAddis": 4038,
      "llicit": 4039,
      "Ġillicit": 4040,
      "243": 4041,
      "Ġamerican": 4042,
      "video": 4043,
      "ontevideo": 4044,
      "ara": 4045,
      "Ġ71": 4046,
      "ĠRand": 4047,
      "ĠYen": 4048,
      "ccra": 4049,
      "ondon": 4050,
      "Write": 4051,
      "ĠPyongyang": 4052,
      "06": 4053,
      "kish": 4054,
      "rew": 4055,
      "ĠScor": 4056,
      "ĠMontevideo": 4057,
      "ĠLondon": 4058,
      "Ġ153": 4059,
      "Ġ377": 4060,
      "ebrew": 4061,
      "Ġ841": 4062,
      "01": 4063,
      "73": 4064,
      "la": 4065,
      "®le": 4066,
      "Ã®le": 4067,
      "Ġisland": 4068,
      "Ġisla": 4069,
      "ĠAccra": 4070,
      "Ġ1134": 4071,
      "indi": 4072,
      "Ġ160": 4073,
      "Ġ254": 4074,
      "ĠHebrew": 4075,
      "ĠTurkish": 4076,
      "ĠSuccess": 4077,
      "sian": 4078,
      "erta": 4079,
      "Ġfle": 4080,
      "Ġport": 4081,
      "edi": 4082,
      "Ġbrid": 4083,
      "ente": 4084,
      "ĠEIO": 4085,
      "Ġdoor": 4086,
      "Ġflor": 4087,
      "Ġparc": 4088,
      "Ġpark": 4089,
      "Ġparque": 4090,
      "ĠHindi": 4091,
      "Ġflower": 4092,
      "Ġpont": 4093,
      "Ġpuerta": 4094,
      "Ġpuente": 4095,
      "Ġfleur": 4096,
      "Ġporte": 4097,
      "Ġbridge": 4098,
      "76": 4099,
      "ras": 4100,
      "erlin": 4101,
      "ĠEAO": 4102,
      "ampal": 4103,
      "ĠCedi": 4104,
      "ima": 4105,
      "Ġ102": 4106,
      "ilia": 4107,
      "Ġ192": 4108,
      "Ġ240": 4109,
      "Ġ2827": 4110,
      "ĠRussian": 4111,
      "Ġrestaurante": 4112,
      "rasilia": 4113,
      "ampala": 4114,
      "Man": 4115,
      "Un": 4116,
      "au": 4117,
      "cle": 4118,
      "oat": 4119,
      "sica": 4120,
      "ºsica": 4121,
      "Ãºsica": 4122,
      "inate": 4123,
      "ali": 4124,
      "enador": 4125,
      "ĠdÃ©": 4126,
      "Ġbar": 4127,
      "Ġbate": 4128,
      "Ġboat": 4129,
      "ĠmÃºsica": 4130,
      "leta": 4131,
      "icleta": 4132,
      "ston": 4133,
      "sert": 4134,
      "ĠBerlin": 4135,
      "ĠBrasilia": 4136,
      "Ġ105": 4137,
      "engali": 4138,
      "ĠLima": 4139,
      "ĠvÃ©": 4140,
      "ierto": 4141,
      "Ġdesierto": 4142,
      "Ġcomputer": 4143,
      "Ġmusic": 4144,
      "Ġmusique": 4145,
      "ĠÂ¬(((": 4146,
      "Ġbicicleta": 4147,
      "Ġbicycle": 4148,
      "Ġordenador": 4149,
      "inateur": 4150,
      "ĠdÃ©sert": 4151,
      "Ġbarco": 4152,
      "Ġbateau": 4153,
      "ĠvÃ©lo": 4154,
      "82": 4155,
      "Ġcarta": 4156,
      "Ġletter": 4157,
      "Ġbos": 4158,
      "olomb": 4159,
      "ĠforÃª": 4160,
      "ĠBasketball": 4161,
      "ĠBengali": 4162,
      "ille": 4163,
      "Ġ110": 4164,
      "Ġville": 4165,
      "Ġ140": 4166,
      "Ġ135": 4167,
      "ĠKampala": 4168,
      "udad": 4169,
      "Ġlettre": 4170,
      "Ġ804": 4171,
      "ĠKingston": 4172,
      "Ġciudad": 4173,
      "Ġbosque": 4174,
      "olombia": 4175,
      "ĠforÃªt": 4176,
      "77": 4177,
      "For": 4178,
      "eum": 4179,
      "alab": 4180,
      "oria": 4181,
      "Ġpalab": 4182,
      "Ġmot": 4183,
      "Ġmar": 4184,
      "ayers": 4185,
      "ĠColombia": 4186,
      "players": 4187,
      "Ġ112": 4188,
      "Ġsea": 4189,
      "200": 4190,
      "ĠReal": 4191,
      "retoria": 4192,
      "Ġ233": 4193,
      "Ã©e": 4194,
      "Ġmuseo": 4195,
      "Ġmuseum": 4196,
      "ĠmusÃ©e": 4197,
      "ufacture": 4198,
      "Ġ676": 4199,
      "Manufacture": 4200,
      "Ġpalabra": 4201,
      "69": 4202,
      "tag": 4203,
      "yiv": 4204,
      "±a": 4205,
      "Ã±a": 4206,
      "ato": 4207,
      "Ġlake": 4208,
      "Ġlago": 4209,
      "Ġgato": 4210,
      "ĠPretoria": 4211,
      "Ġ1017": 4212,
      "Ġchat": 4213,
      "taÃ±a": 4214,
      "Ġ1385": 4215,
      "Ġmontag": 4216,
      "ĠmontaÃ±a": 4217,
      "Ġmountain": 4218,
      "Ġmontagne": 4219,
      "fon": 4220,
      "lÃ©": 4221,
      "mana": 4222,
      "oit": 4223,
      "pa": 4224,
      "Ġtel": 4225,
      "ĠtÃ©": 4226,
      "rell": 4227,
      "Ġsill": 4228,
      "Ġmois": 4229,
      "Ġstar": 4230,
      "see": 4231,
      "Ġchais": 4232,
      "Ġchair": 4233,
      "Ġ125": 4234,
      "Ġsema": 4235,
      "Ġsemana": 4236,
      "Ġvoit": 4237,
      "Ġcoche": 4238,
      "Ġestrell": 4239,
      "ĠKyiv": 4240,
      "Ġ182": 4241,
      "phone": 4242,
      "Ġmonth": 4243,
      "Ã©to": 4244,
      "Ã©fon": 4245,
      "256": 4246,
      "elppa": 4247,
      "Ġphone": 4248,
      "olleh": 4249,
      "6561": 4250,
      "lÃ©phone": 4251,
      "ĠtelÃ©fon": 4252,
      "ĠtÃ©lÃ©phone": 4253,
      "Ġsilla": 4254,
      "Ġchaise": 4255,
      "Ġsemaine": 4256,
      "Ġvoiture": 4257,
      "Ġestrella": 4258,
      "Ã©toile": 4259,
      "ĠtelÃ©fono": 4260,
      "dico": 4261,
      "hand": 4262,
      "iÃ³": 4263,
      "nal": 4264,
      "paper": 4265,
      "spaper": 4266,
      "Ġfoto": 4267,
      "Ġnewspaper": 4268,
      "ĠperiÃ³": 4269,
      "Ġshuttle": 4270,
      "Ġsky": 4271,
      "cock": 4272,
      "Ġcielo": 4273,
      "Ġjournal": 4274,
      "ĠperiÃ³dico": 4275,
      "Ġshuttlecock": 4276,
      "Cam": 4277,
      "bro": 4278,
      "lave": 4279,
      "Ġlun": 4280,
      "Ġluna": 4281,
      "Ġllave": 4282,
      "Ġ200": 4283,
      "Ġbook": 4284,
      "Ġnom": 4285,
      "Ġname": 4286,
      "Ġnomb": 4287,
      "Ġplage": 4288,
      "Ġ116": 4289,
      "ubs": 4290,
      "ĠclÃ©": 4291,
      "Ġclubs": 4292,
      "ĠWas": 4293,
      "Ġbeach": 4294,
      "Ġplaya": 4295,
      "Ġlivre": 4296,
      "Ġlibro": 4297,
      "Ġmoon": 4298,
      "Ġlune": 4299,
      "Ġnombre": 4300,
      "71": 4301,
      "87": 4302,
      "ioma": 4303,
      "Ġid": 4304,
      "ĠdÃŃ": 4305,
      "Ġlang": 4306,
      "icular": 4307,
      "Ġ1963": 4308,
      "Ġ2290": 4309,
      "Ġ405": 4310,
      "Ġparticular": 4311,
      "Ġ452": 4312,
      "ĠScoring": 4313,
      "Ġidioma": 4314,
      "ĠdÃŃa": 4315,
      "Ġlangue": 4316,
      "ien": 4317,
      "Ġ210": 4318,
      "ided": 4319,
      "ĠCricket": 4320,
      "Ġ91": 4321,
      "Ġchien": 4322,
      "Ġperro": 4323,
      "Ġdecided": 4324,
      "Ġgarden": 4325,
      "ÃŃn": 4326,
      "Ġscores": 4327,
      "Ġmatch": 4328,
      "Ġjardin": 4329,
      "ĠjardÃŃn": 4330,
      "tegdag": 4331,
      "2187": 4332,
      "Vietnam": 4333,
      "Ġ114": 4334,
      "Ġ1458": 4335,
      "Ġplayer": 4336,
      "Ġ2463": 4337,
      "Ġ384": 4338,
      "cuela": 4339,
      "ool": 4340,
      "Ġavi": 4341,
      "Ġsun": 4342,
      "Ġsch": 4343,
      "leil": 4344,
      "Ġ529": 4345,
      "Ġ530": 4346,
      "Ġsoleil": 4347,
      "Ġplane": 4348,
      "Ã©co": 4349,
      "Ġ480": 4350,
      "Ġescuela": 4351,
      "Ġ907": 4352,
      "Ġdeserts": 4353,
      "ĠaviÃ³n": 4354,
      "Ġschool": 4355,
      "Ã©cole": 4356,
      "59": 4357,
      "aÃŃ": 4358,
      "cow": 4359,
      "hi": 4360,
      "har": 4361,
      "kara": 4362,
      "uan": 4363,
      "zal": 4364,
      "Ġcas": 4365,
      "ĠpaÃŃ": 4366,
      "ouse": 4367,
      "elhi": 4368,
      "Ġhouse": 4369,
      "ĠAAI": 4370,
      "adh": 4371,
      "etzal": 4372,
      "irr": 4373,
      "abat": 4374,
      "ĠDelhi": 4375,
      "ilip": 4376,
      "Ġmaison": 4377,
      "oscow": 4378,
      "Ġ360": 4379,
      "ucre": 4380,
      "Ġpays": 4381,
      "hington": 4382,
      "iano": 4383,
      "haric": 4384,
      "Ġcasa": 4385,
      "ĠpaÃŃs": 4386,
      "ilipino": 4387,
      "bol": 4388,
      "rbol": 4389,
      "tam": 4390,
      "ĠÃ¡": 4391,
      "Ġtou": 4392,
      "Ġtree": 4393,
      "reet": 4394,
      "rebot": 4395,
      "Ġcalle": 4396,
      "Ġfen": 4397,
      "Ġwind": 4398,
      "Ġrue": 4399,
      "ĠTaka": 4400,
      "adminton": 4401,
      "entana": 4402,
      "Ġstreet": 4403,
      "ĠFilipino": 4404,
      "Ġ615": 4405,
      "ĠSucre": 4406,
      "ĠBirr": 4407,
      "Ġ83": 4408,
      "ĠMoscow": 4409,
      "ĠLira": 4410,
      "Ġventana": 4411,
      "ĠRial": 4412,
      "ĠRabat": 4413,
      "ĠYuan": 4414,
      "rettam": 4415,
      "ĠAmharic": 4416,
      "ĠAnkara": 4417,
      "ĠFranc": 4418,
      "ĠBoliviano": 4419,
      "ĠJapanese": 4420,
      "Ġ706": 4421,
      "ĠQuetzal": 4422,
      "Ãªtre": 4423,
      "ĠRiyal": 4424,
      "ĠRiyadh": 4425,
      "United": 4426,
      "ĠWashington": 4427,
      "ĠÃ¡rbol": 4428,
      "Ġtouch": 4429,
      "rebotco": 4430,
      "ĠfenÃªtre": 4431,
      "Ġwindow": 4432,
      "62": 4433,
      "78": 4434,
      "79": 4435,
      "89": 4436,
      "cad": 4437,
      "tel": 4438,
      "wall": 4439,
      "Ġsong": 4440,
      "Ġswall": 4441,
      "anan": 4442,
      "Ġ216": 4443,
      "Ġmark": 4444,
      "Ġmarch": 4445,
      "Ġnet": 4446,
      "Ġchans": 4447,
      "Ġcanci": 4448,
      "Ġ163": 4449,
      "Ġmercad": 4450,
      "Ġwhole": 4451,
      "Ġswallowed": 4452,
      "ananab": 4453,
      "Ġmarket": 4454,
      "ĠmarchÃ©": 4455,
      "Ġchanson": 4456,
      "ĠcanciÃ³n": 4457,
      "Ġmercado": 4458,
      "74": 4459,
      "ĠEAE": 4460,
      "Ġstick": 4461,
      "ĠGolf": 4462,
      "II": 4463,
      "Pol": 4464,
      "ĠRugby": 4465,
      "rup": 4466,
      "Ġtren": 4467,
      "Ġ540": 4468,
      "raq": 4469,
      "135": 4470,
      "elprup": 4471,
      "arbez": 4472,
      "AA": 4473,
      "Fi": 4474,
      "Ġ320": 4475,
      "ĠIAI": 4476,
      "ĠIraq": 4477,
      "aseball": 4478,
      "Ġ1256": 4479,
      "Ġ252": 4480,
      "Ġ2642": 4481,
      "Ġ450": 4482,
      "Barb": 4483,
      "wolley": 4484,
      "Ġcam": 4485,
      "Ġ126": 4486,
      "Ġ186": 4487,
      "Ġ189": 4488,
      "Ġ201": 4489,
      "Ġroad": 4490,
      "Ġchemin": 4491,
      "Ġcamino": 4492,
      "729": 4493,
      "Nor": 4494,
      "ĠTable": 4495,
      "Ġ124": 4496,
      "Ġ1520": 4497,
      "ĠVolleyball": 4498,
      "160": 4499,
      "Ġ297": 4500,
      "hÃ´pital": 4501,
      "ĠAEE": 4502,
      "core": 4503,
      "hag": 4504,
      "score": 4505,
      "enhag": 4506,
      "eld": 4507,
      "ĠAO": 4508,
      "igeria": 4509,
      "ĠCop": 4510,
      "ĠBadminton": 4511,
      "htyp": 4512,
      "Ġ117": 4513,
      "ĠWater": 4514,
      "nohtyp": 4515,
      "enhagen": 4516,
      "ĠCopenhagen": 4517,
      "Ces": 4518,
      "Ġ2123": 4519,
      "Ġ440": 4520,
      "iah": 4521,
      "ĠNigeria": 4522,
      "Ġ152": 4523,
      "Spain": 4524,
      "Ch": 4525,
      "ja": 4526,
      "Ġminor": 4527,
      "Ġ420": 4528,
      "ĠTennis": 4529,
      "Ġ122": 4530,
      "Ġ330": 4531,
      "ĠRupiah": 4532,
      "arbre": 4533,
      "Fiji": 4534,
      "AD": 4535,
      "CT": 4536,
      "ICT": 4537,
      "RAD": 4538,
      "ross": 4539,
      "ĠBaseball": 4540,
      "108": 4541,
      "ĠCONTRAD": 4542,
      "Ġ378": 4543,
      "ION": 4544,
      "ĠAbuja": 4545,
      "ICTION": 4546,
      "rosse": 4547,
      "ĠCONTRADICTION": 4548,
      "iw": 4549,
      "naro": 4550,
      "Ġ437": 4551,
      "egnaro": 4552,
      "Ġ132": 4553,
      "Ġ280": 4554,
      "Ġ279": 4555,
      "tegdiw": 4556,
      "Poland": 4557,
      "400": 4558,
      "Fer": 4559,
      "entina": 4560,
      "Ġmajor": 4561,
      "162": 4562,
      "ĠField": 4563,
      "hÃ´tel": 4564,
      "91": 4565,
      "Eu": 4566,
      "Secretly": 4567,
      "Ġmay": 4568,
      "Ġhook": 4569,
      "Ġ315": 4570,
      "Ġ425": 4571,
      "ĠArg": 4572,
      "ordinateur": 4573,
      "ĠSoccer": 4574,
      "Ġ118": 4575,
      "Ġ165": 4576,
      "Ġ168": 4577,
      "Ġsticks": 4578,
      "Euro": 4579,
      "Ġhooked": 4580,
      "ĠArgentina": 4581,
      "Cel": 4582,
      "Venezuela": 4583,
      "dogs": 4584,
      "ienn": 4585,
      "uen": 4586,
      "Ġ218": 4587,
      "ĠhÃ´": 4588,
      "ĠAires": 4589,
      "ĠSoftball": 4590,
      "ĠBuen": 4591,
      "Ġ756": 4592,
      "ĠOO": 4593,
      "Ġ260": 4594,
      "ĠÂ¬Â¬Â¬": 4595,
      "Ġordinateur": 4596,
      "ienna": 4597,
      "ĠBuenos": 4598,
      "Dim": 4599,
      "Malay": 4600,
      "Netherlands": 4601,
      "mount": 4602,
      "Ġ418": 4603,
      "ĠAAA": 4604,
      "ĠVienna": 4605,
      "Ġ190": 4606,
      "1458": 4607,
      "Ġ350": 4608,
      "Dimaris": 4609,
      "mountains": 4610,
      "New": 4611,
      "ĠÃ®le": 4612,
      "Ġ510": 4613,
      "Ġ1020": 4614,
      "Ġ1661": 4615,
      "Ġ270": 4616,
      "Ġ560": 4617,
      "avion": 4618,
      "Chile": 4619,
      "600": 4620,
      "Mexico": 4621,
      "hletes": 4622,
      "athletes": 4623,
      "Ġ300": 4624,
      "stars": 4625,
      "ĠAII": 4626,
      "Ġ840": 4627,
      "andball": 4628,
      "Ġ115": 4629,
      "Ġ1215": 4630,
      "Ġ147": 4631,
      "Ġ136": 4632,
      "Ġ255": 4633,
      "ĠAmerican": 4634,
      "Ġ594": 4635,
      "English": 4636,
      "Portug": 4637,
      "ĠÃ©toile": 4638,
      "Ġ220": 4639,
      "Ġ310": 4640,
      "Ġ429": 4641,
      "Ġ432": 4642,
      "Ġ800": 4643,
      "Ġ103": 4644,
      "Ġ145": 4645,
      "ĠHandball": 4646,
      "Ġ323": 4647,
      "Ġlacrosse": 4648,
      "Norway": 4649,
      "Malaysia": 4650,
      "It": 4651,
      "Tanzania": 4652,
      "Ġ700": 4653,
      "ĠJak": 4654,
      "Ġ234": 4655,
      "Ġ456": 4656,
      "Ġ448": 4657,
      "486": 4658,
      "Ital": 4659,
      "ĠJakarta": 4660,
      "935": 4661,
      "Austr": 4662,
      "Th": 4663,
      "cities": 4664,
      "rivers": 4665,
      "Ġ2187": 4666,
      "Ġ528": 4667,
      "ĠSal": 4668,
      "ĠPig": 4669,
      "Ġ101": 4670,
      "ĠNetball": 4671,
      "Ġ155": 4672,
      "Ġ198": 4673,
      "poems": 4674,
      "Ġ172": 4675,
      "Ġ204": 4676,
      "ĠOE": 4677,
      "Ġ272": 4678,
      "Ġ228": 4679,
      "Ġ336": 4680,
      "Camen": 4681,
      "Boc": 4682,
      "Dollar": 4683,
      "Pakistan": 4684,
      "mam": 4685,
      "ĠÃ©cole": 4686,
      "Ġ217": 4687,
      "Ġ299": 4688,
      "Ġ313": 4689,
      "ĠEE": 4690,
      "estres": 4691,
      "Ġ512": 4692,
      "Ġ612": 4693,
      "ardo": 4694,
      "Ġ161": 4695,
      "Ġ154": 4696,
      "Ġ171": 4697,
      "Ġ244": 4698,
      "ĠOAO": 4699,
      "Ġ250": 4700,
      "Ġ273": 4701,
      "Ġ275": 4702,
      "Ġ264": 4703,
      "ĠPolo": 4704,
      "Ġavion": 4705,
      "Camestres": 4706,
      "Barbari": 4707,
      "Italy": 4708,
      "Bocardo": 4709,
      "mammals": 4710,
      "Cuba": 4711,
      "Draft": 4712,
      "Fes": 4713,
      "IE": 4714,
      "iquids": 4715,
      "liquids": 4716,
      "inse": 4717,
      "Ġ213": 4718,
      "Ġbask": 4719,
      "Ġ319": 4720,
      "ants": 4721,
      "apo": 4722,
      "Ġ518": 4723,
      "Ġ616": 4724,
      "Ġ630": 4725,
      "Ġ640": 4726,
      "plants": 4727,
      "Ġ1092": 4728,
      "Ġ1221": 4729,
      "Ġ276": 4730,
      "Ġ221": 4731,
      "Ġ230": 4732,
      "Ġ407": 4733,
      "Ġ261": 4734,
      "Ġ504": 4735,
      "Ġ390": 4736,
      "Ġ564": 4737,
      "Ġ495": 4738,
      "Ġ864": 4739,
      "Ġ693": 4740,
      "ĠÂ¬Â¬(Â¬": 4741,
      "Ġ4374": 4742,
      "Ferio": 4743,
      "Portugal": 4744,
      "Thailand": 4745,
      "Fesapo": 4746,
      "insects": 4747,
      "Ġbaskets": 4748,
      "According": 4749,
      "Fr": 4750,
      "Gree": 4751,
      "eou": 4752,
      "robots": 4753,
      "Ġ312": 4754,
      "Ġ426": 4755,
      "Ġ656": 4756,
      "ĠSeou": 4757,
      "Ġ713": 4758,
      "Ġ972": 4759,
      "arent": 4760,
      "122": 4761,
      "Ġ142": 4762,
      "Ġ146": 4763,
      "Ġ148": 4764,
      "Ġ308": 4765,
      "Ġ259": 4766,
      "Ġ288": 4767,
      "Ġ366": 4768,
      "ĠÂ¬((Â¬": 4769,
      "Ġ609": 4770,
      "Ġ646": 4771,
      "Ġ665": 4772,
      "ĠÂ¬Â¬((": 4773,
      "Celarent": 4774,
      "ĠSeoul": 4775,
      "Alg": 4776,
      "Ecuador": 4777,
      "Sw": 4778,
      "gases": 4779,
      "ona": 4780,
      "anets": 4781,
      "ĠEO": 4782,
      "ĠEagle": 4783,
      "planets": 4784,
      "ĠKangaroo": 4785,
      "Ġ183": 4786,
      "Ġ207": 4787,
      "computers": 4788,
      "Ġ375": 4789,
      "Ġ468": 4790,
      "Ġ666": 4791,
      "Ġ473": 4792,
      "ĠKrona": 4793,
      "Canada": 4794,
      "Barbara": 4795,
      "Cesare": 4796,
      "Cesaro": 4797,
      "France": 4798,
      "Boliv": 4799,
      "Department": 4800,
      "Fres": 4801,
      "IA": 4802,
      "One": 4803,
      "Regarding": 4804,
      "bir": 4805,
      "cars": 4806,
      "mus": 4807,
      "trees": 4808,
      "arrot": 4809,
      "ĠIE": 4810,
      "Ġ532": 4811,
      "Ġ629": 4812,
      "Ġ635": 4813,
      "ĠParrot": 4814,
      "Finland": 4815,
      "Ġ107": 4816,
      "ĠMosquito": 4817,
      "ĠGrass": 4818,
      "Ġ156": 4819,
      "Ġ133": 4820,
      "Ġ170": 4821,
      "Ġ209": 4822,
      "Ġ306": 4823,
      "Ġ286": 4824,
      "Ġ224": 4825,
      "Ġ363": 4826,
      "Ġ290": 4827,
      "Ġ340": 4828,
      "Ġ507": 4829,
      "holm": 4830,
      "Ġ561": 4831,
      "Ġ442": 4832,
      "Ġ544": 4833,
      "Ġ602": 4834,
      "Ġ493": 4835,
      "Ġ494": 4836,
      "ockholm": 4837,
      "ĠAEO": 4838,
      "Australia": 4839,
      "Fresison": 4840,
      "birds": 4841,
      "musicians": 4842,
      "ĠGrasshopper": 4843,
      "Br": 4844,
      "Group": 4845,
      "Guatemala": 4846,
      "Ireland": 4847,
      "Peso": 4848,
      "Rugby": 4849,
      "do": 4850,
      "met": 4851,
      "rept": 4852,
      "Ġ317": 4853,
      "Ġ399": 4854,
      "antip": 4855,
      "Ġ410": 4856,
      "Ġ416": 4857,
      "students": 4858,
      "amantip": 4859,
      "Ġ527": 4860,
      "Ġ600": 4861,
      "Ġ957": 4862,
      ")))))": 4863,
      "Ġ111": 4864,
      "Ġ143": 4865,
      "Ġ134": 4866,
      "Ġ195": 4867,
      "150": 4868,
      "Ġ245": 4869,
      "Ġ3645": 4870,
      "ĠStockholm": 4871,
      "Ġ357": 4872,
      "downs": 4873,
      "Ġ555": 4874,
      "Ġ774": 4875,
      "Ġ765": 4876,
      "ĠIndonesian": 4877,
      "Ġtouchdowns": 4878,
      "ĠAOO": 4879,
      "ĠhÃ´pital": 4880,
      "Camenes": 4881,
      "Greece": 4882,
      "Algeria": 4883,
      "Bramantip": 4884,
      "doctors": 4885,
      "metals": 4886,
      "reptiles": 4887,
      "8200": 4888,
      "Baro": 4889,
      "Is": 4890,
      "Su": 4891,
      "Uk": 4892,
      "cats": 4893,
      "law": 4894,
      "lamingo": 4895,
      "rokes": 4896,
      "Ġ214": 4897,
      "Ġ219": 4898,
      "Ġ411": 4899,
      "Ġ413": 4900,
      "Ġ430": 4901,
      "ĠTuna": 4902,
      "ĠTurtle": 4903,
      "Ġstrokes": 4904,
      "ĠFlamingo": 4905,
      "Ġ534": 4906,
      "Ġ620": 4907,
      "Ġ624": 4908,
      "Ġ735": 4909,
      "Ġ736": 4910,
      "Ġ129": 4911,
      "ĠLadybug": 4912,
      "Ġ1350": 4913,
      "Ġ187": 4914,
      "Ġ208": 4915,
      "Ġ248": 4916,
      "ĠSpider": 4917,
      "Ġ253": 4918,
      "Ġ282": 4919,
      "Ġ238": 4920,
      "Ġ406": 4921,
      "Ġ364": 4922,
      "Ġ381": 4923,
      "Ġ376": 4924,
      "Ġ351": 4925,
      "Ġ465": 4926,
      "ĠCockroach": 4927,
      "Ġ684": 4928,
      "Ġ891": 4929,
      "ĠBeetle": 4930,
      "ĠSwedish": 4931,
      "Baroko": 4932,
      "lawyers": 4933,
      "640": 4934,
      "Bang": 4935,
      "Fest": 4936,
      "Organization": 4937,
      "Rus": 4938,
      "Singapore": 4939,
      "flow": 4940,
      "wl": 4941,
      "ather": 4942,
      "Ġ212": 4943,
      "Ġ211": 4944,
      "Ġ434": 4945,
      "Ġ513": 4946,
      "Ġ618": 4947,
      "ĠCrocodile": 4948,
      "ĠSnake": 4949,
      "Ġ825": 4950,
      "Ġ855": 4951,
      "Ġ728": 4952,
      "Ġ770": 4953,
      "Ġ1094": 4954,
      "ĠGecko": 4955,
      "1092": 4956,
      "10935": 4957,
      "ĠLion": 4958,
      "ĠWolf": 4959,
      "Ġ184": 4960,
      "Ġ185": 4961,
      "Ġ176": 4962,
      "ĠOwl": 4963,
      "Ġfeather": 4964,
      "170": 4965,
      "Ġ232": 4966,
      "novels": 4967,
      "Ġ341": 4968,
      "240": 4969,
      "Ġ333": 4970,
      "280": 4971,
      "Ġ396": 4972,
      "Ġ455": 4973,
      "ĠShark": 4974,
      "Ġ741": 4975,
      "Unlike": 4976,
      "Ġnetted": 4977,
      "ĠhÃ´tel": 4978,
      "Ukraine": 4979,
      "Festino": 4980,
      "flowers": 4981,
      "Ġfeathered": 4982,
      "Brazil": 4983,
      "Comp": 4984,
      "Dis": 4985,
      "Datis": 4986,
      "Fel": 4987,
      "Ind": 4988,
      "Iran": 4989,
      "Japan": 4990,
      "Saudi": 4991,
      "Table": 4992,
      "Team": 4993,
      "bic": 4994,
      "ycles": 4995,
      "Ġpadd": 4996,
      "Ġ318": 4997,
      "Ġ419": 4998,
      "Ġ427": 4999,
      "Ġ435": 5000,
      "ĠTick": 5001,
      "apton": 5002,
      "utterfly": 5003,
      "amis": 5004,
      "Ġ520": 5005,
      "Ġ500": 5006,
      "Ġ523": 5007,
      "Ġ526": 5008,
      "Ġ628": 5009,
      "ĠButterfly": 5010,
      "Ġ837": 5011,
      "Ġ711": 5012,
      "Ġ748": 5013,
      "Ġ925": 5014,
      "Ġ109": 5015,
      "Ġ1023": 5016,
      "Ġ1073": 5017,
      "ĠDanish": 5018,
      "ĠDeer": 5019,
      "ĠDuck": 5020,
      "Ġ127": 5021,
      "105": 5022,
      "ĠRabbit": 5023,
      "Ġ222": 5024,
      "Ġ266": 5025,
      "Ġ385": 5026,
      "Ġ388": 5027,
      "Ġ342": 5028,
      "Ġ374": 5029,
      "Ġ444": 5030,
      "Ġ547": 5031,
      "Ġ990": 5032,
      "Ġ577": 5033,
      "Ġ559": 5034,
      "Ġ873": 5035,
      "Ġ777": 5036,
      "Ġ675": 5037,
      "ĠScorpion": 5038,
      "ĠAOI": 5039,
      "ĠOOO": 5040,
      "Russia": 5041,
      "Company": 5042,
      "Disamis": 5043,
      "Datisi": 5044,
      "Felapton": 5045,
      "bicycles": 5046,
      "Ġpaddle": 5047,
      "437": 5048,
      "Arab": 5049,
      "Basketball": 5050,
      "Ghana": 5051,
      "Jamaica": 5052,
      "Morocco": 5053,
      "South": 5054,
      "Tur": 5055,
      "bre": 5056,
      "dad": 5057,
      "hdad": 5058,
      "ox": 5059,
      "rout": 5060,
      "rayfish": 5061,
      "Ġ215": 5062,
      "Ġ316": 5063,
      "ĠTrout": 5064,
      "ĠFox": 5065,
      "Ġ658": 5066,
      "Ġ680": 5067,
      "ĠCrayfish": 5068,
      "ĠSheep": 5069,
      "ĠPenguin": 5070,
      "ĠBag": 5071,
      "Ġ819": 5072,
      "Ġ858": 5073,
      "Ġ870": 5074,
      "Ġ730": 5075,
      "Ġ999": 5076,
      "achers": 5077,
      "ĠMite": 5078,
      "Ġ1248": 5079,
      "Ġarbre": 5080,
      "ĠLizard": 5081,
      "Ġ151": 5082,
      "Ġ1530": 5083,
      "Ġ1560": 5084,
      "Ġ13122": 5085,
      "Ġ1820": 5086,
      "Ġ246": 5087,
      "teachers": 5088,
      "Ġ285": 5089,
      "Ġ2820": 5090,
      "147": 5091,
      "Ġ2700": 5092,
      "Ġ2735": 5093,
      "Ġ2250": 5094,
      "Ġ296": 5095,
      "ĠZebra": 5096,
      "Ġ328": 5097,
      "Ġ4800": 5098,
      "Ġ338": 5099,
      "Ġ5400": 5100,
      "Ġ460": 5101,
      "Ġ608": 5102,
      "Ġ948": 5103,
      "Ġ775": 5104,
      "Ġ776": 5105,
      "Ġ897": 5106,
      "Ġ19680": 5107,
      "6560": 5108,
      "8748": 5109,
      "North": 5110,
      "Ferison": 5111,
      "ĠSalamander": 5112,
      "ĠSalmon": 5113,
      "ĠPigeon": 5114,
      "Bolivia": 5115,
      "Israel": 5116,
      "Arabic": 5117,
      "ĠBaghdad": 5118,
      "3280": 5119,
      "768": 5120,
      "972": 5121,
      "Dari": 5122,
      "Ethiopia": 5123,
      "Ur": 5124,
      "Uganda": 5125,
      "ont": 5126,
      "aront": 5127,
      "Ġ423": 5128,
      "Ġ438": 5129,
      "Ġ517": 5130,
      "Ġ525": 5131,
      "Ġ539": 5132,
      "Ġ627": 5133,
      "Ġ621": 5134,
      "ĠCow": 5135,
      "ĠBee": 5136,
      "Ġ899": 5137,
      "Ġ824": 5138,
      "Ġ726": 5139,
      "Ġ742": 5140,
      "Ġ743": 5141,
      "Ġ939": 5142,
      "Ġ1026": 5143,
      "Ġ1053": 5144,
      "ĠMoth": 5145,
      "Ġ1254": 5146,
      "ĠLobster": 5147,
      "1215": 5148,
      "119": 5149,
      "Ġ141": 5150,
      "Ġ247": 5151,
      "ĠSparrow": 5152,
      "Ġ304": 5153,
      "Ġ3024": 5154,
      "Ġ408": 5155,
      "Ġ294": 5156,
      "Ġ(Â¬Â¬": 5157,
      "Ġ481": 5158,
      "ĠAlligator": 5159,
      "Ġ345": 5160,
      "Ġ348": 5161,
      "Ġ370": 5162,
      "Ġ3546": 5163,
      "288": 5164,
      "Peru": 5165,
      "Ġ391": 5166,
      "Ġ395": 5167,
      "Ġ567": 5168,
      "Ġ462": 5169,
      "384": 5170,
      "Ġ648": 5171,
      "Ġ802": 5172,
      "Ġ570": 5173,
      "Ġ578": 5174,
      "Ġ580": 5175,
      "Ġ475": 5176,
      "Ġ477": 5177,
      "Ġ4320": 5178,
      "Ġ592": 5179,
      "Ġ768": 5180,
      "Ġ1205": 5181,
      "Ġ651": 5182,
      "ĠGoose": 5183,
      "Celaront": 5184,
      "ĠEEE": 5185,
      "Success": 5186,
      "Bangladesh": 5187,
      "Turkey": 5188,
      "Darii": 5189,
      "110": 5190,
      "319": 5191,
      "340": 5192,
      "930": 5193,
      "Badminton": 5194,
      "Egypt": 5195,
      "Germ": 5196,
      "Philippines": 5197,
      "Tennis": 5198,
      "guana": 5199,
      "oad": 5200,
      "islands": 5201,
      "ota": 5202,
      "lephant": 5203,
      "ĠIO": 5204,
      "ĠIguana": 5205,
      "Ġ412": 5206,
      "ĠToad": 5207,
      "ogota": 5208,
      "ĠElephant": 5209,
      "Ġ515": 5210,
      "Ġ699": 5211,
      "acrosse": 5212,
      "ĠCrow": 5213,
      "ĠCrab": 5214,
      "ĠBogota": 5215,
      "Ġ810": 5216,
      "Ġ812": 5217,
      "Ġ750": 5218,
      "Ġ758": 5219,
      "Ġ930": 5220,
      "Ġ950": 5221,
      "Ġ10935": 5222,
      "ĠDog": 5223,
      "Ġ1190": 5224,
      "Ġ1152": 5225,
      "Ġ123": 5226,
      "Ġ1200": 5227,
      "Ġ1275": 5228,
      "Ġ1620": 5229,
      "Ġ16400": 5230,
      "Ġ1521": 5231,
      "Ġ199": 5232,
      "153": 5233,
      "154": 5234,
      "Ġ242": 5235,
      "Ġ2400": 5236,
      "Ġ305": 5237,
      "ĠHarvestman": 5238,
      "1640": 5239,
      "140": 5240,
      "190": 5241,
      "192": 5242,
      "Ġ3600": 5243,
      "Ġ2916": 5244,
      "Ġ2984": 5245,
      "Ġ3280": 5246,
      "Ġ483": 5247,
      "Ġ372": 5248,
      "Ġ352": 5249,
      "Ġ392": 5250,
      "Ġ458": 5251,
      "Ġ546": 5252,
      "Ġ5465": 5253,
      "Ġ995": 5254,
      "364": 5255,
      "560": 5256,
      "Ġ575": 5257,
      "Ġ553": 5258,
      "Ġ787": 5259,
      "Ġ660": 5260,
      "Ġ703": 5261,
      "estros": 5262,
      "Ġ878": 5263,
      "Ġ8748": 5264,
      "Ġ760": 5265,
      "Ġ762": 5266,
      "Ġ6558": 5267,
      "Ġ13120": 5268,
      "ĠAEI": 5269,
      "Camestros": 5270,
      "Ġ3150": 5271,
      "Ġ2184": 5272,
      "Switzerland": 5273,
      "India": 5274,
      "4374": 5275,
      "Germany": 5276,
      "780": 5277,
      "Am": 5278,
      "Dar": 5279,
      "Netball": 5280,
      "Scor": 5281,
      "Volleyball": 5282,
      "Ġ414": 5283,
      "Ġ424": 5284,
      "ĠAAE": 5285,
      "Ġ522": 5286,
      "Ġ650": 5287,
      "ĠSquirrel": 5288,
      "Ġ832": 5289,
      "Ġ835": 5290,
      "Ġ833": 5291,
      "Ġ880": 5292,
      "Ġ719": 5293,
      "Ġ929": 5294,
      "Ġ928": 5295,
      "Ġ936": 5296,
      "Ġ958": 5297,
      "Ġ981": 5298,
      "Ġ1014": 5299,
      "Ġ1050": 5300,
      "Ġ1057": 5301,
      "ĠDragonfly": 5302,
      "Ġ1110": 5303,
      "Ġ1160": 5304,
      "Ġ1216": 5305,
      "Ġ1240": 5306,
      "Ġ1260": 5307,
      "ĠLacrosse": 5308,
      "Ġ1677": 5309,
      "Ġ1464": 5310,
      "Ġ1482": 5311,
      "Ġ1330": 5312,
      "ĠKoala": 5313,
      "Ġ1869": 5314,
      "Ġ177": 5315,
      "Ġ1713": 5316,
      "Ġ203": 5317,
      "ĠOstrich": 5318,
      "ĠHorse": 5319,
      "Ġ2790": 5320,
      "Ġ2229": 5321,
      "185": 5322,
      "Ġ231": 5323,
      "Ġ2610": 5324,
      "Ġ368": 5325,
      "Ġ292": 5326,
      "Ġ3234": 5327,
      "255": 5328,
      "Ġ489": 5329,
      "Ġ343": 5330,
      "Ġ501": 5331,
      "Ġ506": 5332,
      "Ġ354": 5333,
      "Ġ398": 5334,
      "Ġ5652": 5335,
      "Ġ466": 5336,
      "Ġ992": 5337,
      "Ġ805": 5338,
      "Ġ496": 5339,
      "Ġ552": 5340,
      "Ġ558": 5341,
      "Ġ783": 5342,
      "Ġ585": 5343,
      "Ġ589": 5344,
      "Ġ663": 5345,
      "Ġ704": 5346,
      "Ġ960": 5347,
      "Ġ470": 5348,
      "Ġ861": 5349,
      "Ġ865": 5350,
      "Ġ869": 5351,
      "Ġ945": 5352,
      "Ġ690": 5353,
      "Ġ595": 5354,
      "Ġ682": 5355,
      "Ġ872": 5356,
      "Ġ875": 5357,
      "Ġ761": 5358,
      "Ġ752": 5359,
      "Ġ759": 5360,
      "ĠGoat": 5361,
      "apti": 5362,
      "Ġ1887": 5363,
      "Ġ1287": 5364,
      "China": 5365,
      "ĠOEI": 5366,
      "ĠOEO": 5367,
      "ĠEEI": 5368,
      "Uruguay": 5369,
      "Darapti": 5370,
      "Scoring": 5371,
      "210": 5372,
      "228": 5373,
      "324": 5374,
      "323": 5375,
      "425": 5376,
      "510": 5377,
      "512": 5378,
      "957": 5379,
      "Baseball": 5380,
      "Hanoi": 5381,
      "Ġ2205": 5382,
      "ĠIIO": 5383,
      "ĠIII": 5384,
      "ĠIIE": 5385,
      "Ġ417": 5386,
      "Ġ436": 5387,
      "ĠAnt": 5388,
      "Ġ550": 5389,
      "Ġ634": 5390,
      "Ġ637": 5391,
      "ĠPanda": 5392,
      "Ġ836": 5393,
      "Ġ857": 5394,
      "Ġ851": 5395,
      "Ġ710": 5396,
      "Ġ716": 5397,
      "Ġ714": 5398,
      "Ġ725": 5399,
      "Ġ792": 5400,
      "Ġ795": 5401,
      "Ġ912": 5402,
      "Ġ940": 5403,
      "Ġ934": 5404,
      "Ġ955": 5405,
      "Ġ1296": 5406,
      "ĠGiraffe": 5407,
      "104": 5408,
      "126": 5409,
      "Ġ164": 5410,
      "Ġ1600": 5411,
      "Ġ1614": 5412,
      "Ġ1641": 5413,
      "Ġ158": 5414,
      "Ġ159": 5415,
      "116": 5416,
      "Ġ1456": 5417,
      "Ġ137": 5418,
      "Ġ1331": 5419,
      "Ġ13200": 5420,
      "Ġ1814": 5421,
      "Ġ206": 5422,
      "Ġ2094": 5423,
      "ĠOAI": 5424,
      "Ġ309": 5425,
      "Ġ258": 5426,
      "Ġ2510": 5427,
      "Ġ2800": 5428,
      "13122": 5429,
      "161": 5430,
      "168": 5431,
      "145": 5432,
      "Ġ2797": 5433,
      "Ġ2701": 5434,
      "Ġ235": 5435,
      "Ġ2350": 5436,
      "Ġ2666": 5437,
      "Ġ369": 5438,
      "Ġ3610": 5439,
      "Ġ3626": 5440,
      "Ġ3870": 5441,
      "Ġ3282": 5442,
      "Ġ3279": 5443,
      "250": 5444,
      "Ġ488": 5445,
      "Ġ4893": 5446,
      "ĠChameleon": 5447,
      "ĠChicken": 5448,
      "Ġ337": 5449,
      "Ġ449": 5450,
      "Ġ541": 5451,
      "Ġ463": 5452,
      "Ġ464": 5453,
      "Ġ571": 5454,
      "Ġ573": 5455,
      "Ġ498": 5456,
      "Ġ780": 5457,
      "Ġ786": 5458,
      "Ġ845": 5459,
      "Ġ847": 5460,
      "Ġ848": 5461,
      "Ġ668": 5462,
      "Ġ476": 5463,
      "Ġ867": 5464,
      "Ġ941": 5465,
      "Ġ778": 5466,
      "Ġ671": 5467,
      "Ġ882": 5468,
      "9840": 5469,
      "Ġ2008": 5470,
      "ĠWasp": 5471,
      "Ġ2103": 5472,
      "Ġ2186": 5473,
      "Ġ2188": 5474,
      "ĠOOA": 5475,
      "Ġ1902": 5476,
      "Camenop": 5477,
      "ĠEOA": 5478,
      "ĠIEO": 5479,
      "120": 5480,
      "112": 5481,
      "224": 5482,
      "534": 5483,
      "550": 5484,
      "597": 5485,
      "650": 5486,
      "758": 5487,
      "840": 5488,
      "Cricket": 5489,
      "Dong": 5490,
      "Golf": 5491,
      "Sh": 5492,
      "Water": 5493,
      "Warsaw": 5494,
      "Ġ311": 5495,
      "ĠIAO": 5496,
      "Ġ421": 5497,
      "Ġ4256": 5498,
      "ĠAph": 5499,
      "ĠAIO": 5500,
      "ĠAIE": 5501,
      "ĠAIA": 5502,
      "ĠTerm": 5503,
      "ĠTiger": 5504,
      "ĠEAA": 5505,
      "ĠFly": 5506,
      "ĠFrog": 5507,
      "Ġ514": 5508,
      "Ġ521": 5509,
      "Ġ622": 5510,
      "Ġ638": 5511,
      "Ġ639": 5512,
      "Ġ816": 5513,
      "Ġ814": 5514,
      "Ġ826": 5515,
      "Ġ834": 5516,
      "Ġ856": 5517,
      "Ġ712": 5518,
      "Ġ717": 5519,
      "Ġ718": 5520,
      "Ġ790": 5521,
      "Ġ910": 5522,
      "Ġ920": 5523,
      "Ġ956": 5524,
      "Ġ954": 5525,
      "Ġ951": 5526,
      "Ġ1000": 5527,
      "Ġ1044": 5528,
      "Ġ1170": 5529,
      "Ġ1184": 5530,
      "Ġ1178": 5531,
      "Ġ1295": 5532,
      "ĠGoldfish": 5533,
      "203": 5534,
      "Ġ1400": 5535,
      "Ġ1485": 5536,
      "Ġ1461": 5537,
      "Ġ1332": 5538,
      "Ġ1365": 5539,
      "Ġ2028": 5540,
      "Ġ241": 5541,
      "Ġ2496": 5542,
      "Ġ2472": 5543,
      "ĠOII": 5544,
      "Ġ3036": 5545,
      "Ġ251": 5546,
      "Ġ257": 5547,
      "Ġ287": 5548,
      "Ġ2864": 5549,
      "144": 5550,
      "Ġ2768": 5551,
      "Ġ2796": 5552,
      "Ġ2772": 5553,
      "Ġ2765": 5554,
      "197": 5555,
      "995": 5556,
      "Ġ237": 5557,
      "Ġ401": 5558,
      "Ġ402": 5559,
      "Ġ403": 5560,
      "Ġ267": 5561,
      "Ġ268": 5562,
      "Ġ2625": 5563,
      "Ġ2680": 5564,
      "Ġ2646": 5565,
      "Ġ2915": 5566,
      "Ġ2112": 5567,
      "Ġ387": 5568,
      "Ġ3830": 5569,
      "Ġ3871": 5570,
      "Ġ327": 5571,
      "Ġ485": 5572,
      "Ġ346": 5573,
      "Ġ3428": 5574,
      "Ġ3458": 5575,
      "242": 5576,
      "270": 5577,
      "275": 5578,
      "Ġ3715": 5579,
      "Ġ335": 5580,
      "Ġ3328": 5581,
      "Ġ3360": 5582,
      "Ġ3367": 5583,
      "Ġ394": 5584,
      "Ġ3968": 5585,
      "Ġ563": 5586,
      "Ġ451": 5587,
      "Ġ447": 5588,
      "Ġ4485": 5589,
      "Ġ548": 5590,
      "Ġ4692": 5591,
      "Ġ604": 5592,
      "Ġ605": 5593,
      "Ġ801": 5594,
      "Ġ572": 5595,
      "Ġ574": 5596,
      "Ġ492": 5597,
      "Ġ497": 5598,
      "Ġ554": 5599,
      "Ġ782": 5600,
      "Ġ785": 5601,
      "Ġ846": 5602,
      "Ġ581": 5603,
      "Ġ584": 5604,
      "Ġ662": 5605,
      "Ġ702": 5606,
      "Ġ708": 5607,
      "Ġ472": 5608,
      "Ġ478": 5609,
      "Ġ4312": 5610,
      "Ġ868": 5611,
      "Ġ1444": 5612,
      "Ġ944": 5613,
      "Ġ695": 5614,
      "Ġ696": 5615,
      "Ġ681": 5616,
      "Ġ874": 5617,
      "Ġ6776": 5618,
      "Ġ884": 5619,
      "Ġ895": 5620,
      "Ġ1696": 5621,
      "Ġ749": 5622,
      "Ġ7928": 5623,
      "Ġ1302": 5624,
      "Ġ1404": 5625,
      "Ġ2105": 5626,
      "Vietnamese": 5627,
      "Polo": 5628,
      "Field": 5629,
      "Ġ4509": 5630,
      "Ġ3304": 5631,
      "ĠOOI": 5632,
      "Austria": 5633,
      "Ġ2149": 5634,
      "Ġ7704": 5635,
      "Shilling": 5636,
      "ĠAphid": 5637,
      "ĠTermite": 5638,
      "09": 5639,
      "223": 5640,
      "420": 5641,
      "500": 5642,
      "616": 5643,
      "638": 5644,
      "970": 5645,
      "Ab": 5646,
      "Belgium": 5647,
      "Dirham": 5648,
      "Dutch": 5649,
      "Denmark": 5650,
      "Kenya": 5651,
      "Madrid": 5652,
      "Rup": 5653,
      "Santiago": 5654,
      "Softball": 5655,
      "Zloty": 5656,
      "eden": 5657,
      "ĠIAE": 5658,
      "ĠIIA": 5659,
      "Ġ4000": 5660,
      "Ġ4200": 5661,
      "Ġ4160": 5662,
      "Ġ4150": 5663,
      "ĠEII": 5664,
      "Ġ516": 5665,
      "Ġ611": 5666,
      "Ġ619": 5667,
      "Ġ636": 5668,
      "Ġ633": 5669,
      "ĠCat": 5670,
      "Ġ815": 5671,
      "Ġ8100": 5672,
      "Ġ838": 5673,
      "Ġ831": 5674,
      "Ġ724": 5675,
      "Ġ722": 5676,
      "Ġ740": 5677,
      "Ġ732": 5678,
      "Ġ733": 5679,
      "Ġ744": 5680,
      "Ġ747": 5681,
      "Ġ798": 5682,
      "Ġ924": 5683,
      "Ġ933": 5684,
      "Ġ953": 5685,
      "Ġ985": 5686,
      "Ġ1080": 5687,
      "Ġ1085": 5688,
      "Ġ1043": 5689,
      "Ġ11100": 5690,
      "Ġ1156": 5691,
      "Ġ1168": 5692,
      "Ġ1188": 5693,
      "Ġ1224": 5694,
      "Ġ1250": 5695,
      "Ġ1292": 5696,
      "103": 5697,
      "106": 5698,
      "207": 5699,
      "209": 5700,
      "125": 5701,
      "Ġ166": 5702,
      "Ġ1617": 5703,
      "Ġ1638": 5704,
      "Ġ1653": 5705,
      "Ġ1662": 5706,
      "Ġ1689": 5707,
      "Ġ1550": 5708,
      "Ġ1547": 5709,
      "Ġ1585": 5710,
      "Ġ1559": 5711,
      "117": 5712,
      "Ġ149": 5713,
      "Ġ1421": 5714,
      "Ġ1440": 5715,
      "Ġ1438": 5716,
      "Ġ1480": 5717,
      "Ġ1497": 5718,
      "Ġ139": 5719,
      "Ġ1320": 5720,
      "Ġ1360": 5721,
      "Ġ1811": 5722,
      "Ġ1800": 5723,
      "Ġ18000": 5724,
      "Ġ1850": 5725,
      "Ġ1838": 5726,
      "Ġ1890": 5727,
      "Ġ1860": 5728,
      "Ġ1883": 5729,
      "Ġ18400": 5730,
      "Ġ197": 5731,
      "Ġ1915": 5732,
      "Ġ1930": 5733,
      "Ġ1921": 5734,
      "Ġ1958": 5735,
      "Ġ1960": 5736,
      "Ġ1951": 5737,
      "Ġ1975": 5738,
      "Ġ1946": 5739,
      "152": 5740,
      "159": 5741,
      "Ġ173": 5742,
      "Ġ174": 5743,
      "Ġ1740": 5744,
      "Ġ1771": 5745,
      "Ġ205": 5746,
      "Ġ2010": 5747,
      "Ġ2050": 5748,
      "Ġ2070": 5749,
      "Ġ2041": 5750,
      "Ġ2086": 5751,
      "Ġ2078": 5752,
      "Ġ249": 5753,
      "Ġ2430": 5754,
      "Ġ2480": 5755,
      "ĠOIO": 5756,
      "ĠOAA": 5757,
      "ĠOIE": 5758,
      "Ġ3099": 5759,
      "Ġ3026": 5760,
      "Ġ3035": 5761,
      "Ġ3090": 5762,
      "Ġ3062": 5763,
      "Ġ2513": 5764,
      "Ġ2519": 5765,
      "Ġ2528": 5766,
      "Ġ2574": 5767,
      "Ġ284": 5768,
      "Ġ2838": 5769,
      "Ġ2877": 5770,
      "Ġ2871": 5771,
      "165": 5772,
      "141": 5773,
      "148": 5774,
      "174": 5775,
      "176": 5776,
      "Ġ2750": 5777,
      "Ġ2769": 5778,
      "196": 5779,
      "Ġ2215": 5780,
      "Ġ2213": 5781,
      "Ġ2214": 5782,
      "Ġ2258": 5783,
      "994": 5784,
      "Ġ2316": 5785,
      "Ġ2338": 5786,
      "Ġ2356": 5787,
      "Ġ2370": 5788,
      "Ġ2345": 5789,
      "Ġ2371": 5790,
      "Ġ23400": 5791,
      "Ġ404": 5792,
      "Ġ4019": 5793,
      "Ġ4025": 5794,
      "Ġ4050": 5795,
      "Ġ2600": 5796,
      "Ġ2619": 5797,
      "Ġ293": 5798,
      "Ġ2911": 5799,
      "Ġ2985": 5800,
      "Ġ386": 5801,
      "Ġ3816": 5802,
      "Ġ38320": 5803,
      "Ġ325": 5804,
      "Ġ329": 5805,
      "Ġ3212": 5806,
      "Ġ3250": 5807,
      "Ġ3294": 5808,
      "Ġ3276": 5809,
      "Ġ487": 5810,
      "Ġ4860": 5811,
      "Ġ3419": 5812,
      "Ġ3435": 5813,
      "Ġ3494": 5814,
      "295": 5815,
      "Ġ5014": 5816,
      "273": 5817,
      "Ġ355": 5818,
      "Ġ356": 5819,
      "Ġ3500": 5820,
      "Ġ3580": 5821,
      "Ġ3549": 5822,
      "Ġ3399": 5823,
      "Ġ3350": 5824,
      "Ġ3387": 5825,
      "234": 5826,
      "Ġ393": 5827,
      "Ġ5600": 5828,
      "Ġ4500": 5829,
      "Ġ45000": 5830,
      "Ġ4528": 5831,
      "Ġ4560": 5832,
      "Ġ445": 5833,
      "Ġ4420": 5834,
      "Ġ461": 5835,
      "Ġ993": 5836,
      "507": 5837,
      "Ġ601": 5838,
      "363": 5839,
      "Ġ5760": 5840,
      "Ġ491": 5841,
      "Ġ4950": 5842,
      "Ġ4948": 5843,
      "Ġ551": 5844,
      "Ġ4224": 5845,
      "Ġ903": 5846,
      "Ġ904": 5847,
      "Ġ906": 5848,
      "Ġ908": 5849,
      "Ġ707": 5850,
      "Ġ966": 5851,
      "Ġ4747": 5852,
      "Ġ4350": 5853,
      "Ġ43200": 5854,
      "Ġ866": 5855,
      "Ġ8600": 5856,
      "Ġ1443": 5857,
      "571": 5858,
      "Ġ946": 5859,
      "Ġ949": 5860,
      "Ġ698": 5861,
      "Ġ593": 5862,
      "Ġ598": 5863,
      "Ġ5920": 5864,
      "Ġ5940": 5865,
      "Ġ685": 5866,
      "Ġ7740": 5867,
      "Ġ672": 5868,
      "Ġ673": 5869,
      "Ġ678": 5870,
      "Ġ6750": 5871,
      "Ġ881": 5872,
      "Ġ887": 5873,
      "Ġ888": 5874,
      "Ġ751": 5875,
      "Ġ896": 5876,
      "Ġ8970": 5877,
      "Ġ6300": 5878,
      "Ġ1692": 5879,
      "Ġ746": 5880,
      "Ġ1086": 5881,
      "666": 5882,
      "Ġ5330": 5883,
      "Ġ8550": 5884,
      "Ġ984": 5885,
      "Ġ9840": 5886,
      "Ġ1503": 5887,
      "ĠBear": 5888,
      "))))))": 5889,
      "4920": 5890,
      "984": 5891,
      "Ġ3144": 5892,
      "Ġ797": 5893,
      "Ġ978": 5894,
      "Ġ959": 5895,
      "ĠAEA": 5896,
      "677": 5897,
      "Ġ2002": 5898,
      "Ġ21600": 5899,
      "Polish": 5900,
      "Ġ18900": 5901,
      "ĠAOA": 5902,
      "ĠAOE": 5903,
      "Ġ44030": 5904,
      "ĠOOE": 5905,
      "Ġ26070": 5906,
      "Ġ19080": 5907,
      "Ġ14700": 5908,
      "Portuguese": 5909,
      "ĠOEA": 5910,
      "Ġ2130": 5911,
      "Ġ3909": 5912,
      "Ġ6560": 5913,
      "Ġ6561": 5914,
      "Swahili": 5915,
      "Sweden": 5916,
      "ĠEOO": 5917,
      "Bolivar": 5918,
      "ĠIEI": 5919,
      "Ġ6293": 5920,
      "Ġ3990": 5921,
      "Suva": 5922,
      "Ġ2126": 5923,
      "Ġ2114": 5924,
      "Ġ87300": 5925,
      "Ġ6580": 5926,
      "Ġ151200": 5927,
      "Ġ4369": 5928,
      "Ġ332800": 5929,
      "Abu": 5930,
      "318": 5931,
      "335": 5932,
      "418": 5933,
      "436": 5934,
      "468": 5935,
      "495": 5936,
      "537": 5937,
      "595": 5938,
      "594": 5939,
      "618": 5940,
      "630": 5941,
      "715": 5942,
      "754": 5943,
      "796": 5944,
      "792": 5945,
      "765": 5946,
      "868": 5947,
      "877": 5948,
      "924": 5949,
      "926": 5950,
      "986": 5951,
      "Be": 5952,
      "Baht": 5953,
      "Caracas": 5954,
      "Dh": 5955,
      "Dodoma": 5956,
      "German": 5957,
      "Hryvnia": 5958,
      "Havana": 5959,
      "Kr": 5960,
      "Kuala": 5961,
      "Lisbon": 5962,
      "Oslo": 5963,
      "Rome": 5964,
      "Ringgit": 5965,
      "Tehran": 5966,
      "Wellington": 5967,
      "Ġ2150": 5968,
      "Ġ428": 5969,
      "ĠAAO": 5970,
      "ĠEAI": 5971,
      "ĠEIE": 5972,
      "ĠEIA": 5973,
      "Ġ519": 5974,
      "Ġ599": 5975,
      "Ġ538": 5976,
      "Ġ536": 5977,
      "Ġ610": 5978,
      "Ġ623": 5979,
      "Ġ626": 5980,
      "Ġ631": 5981,
      "Ġ653": 5982,
      "Ġ813": 5983,
      "Ġ818": 5984,
      "Ġ823": 5985,
      "Ġ828": 5986,
      "Ġ850": 5987,
      "Ġ853": 5988,
      "Ġ854": 5989,
      "Ġ799": 5990,
      "Ġ738": 5991,
      "Ġ919": 5992,
      "Ġ921": 5993,
      "Ġ932": 5994,
      "Ġ937": 5995,
      "Ġ931": 5996,
      "Ġ942": 5997,
      "Ġ988": 5998,
      "Ġ975": 5999,
      "Finnish": 6000,
      "Ġ1019": 6001,
      "Ġ1040": 6002,
      "Ġ1046": 6003,
      "Ġ1122": 6004,
      "Ġ1140": 6005,
      "Ġ1106": 6006,
      "Ġ1258": 6007,
      "101": 6008,
      "202": 6009,
      "208": 6010,
      "129": 6011,
      "Ġ1565": 6012,
      "Ġ1541": 6013,
      "111": 6014,
      "Ġ1470": 6015,
      "Ġ1494": 6016,
      "Ġ1488": 6017,
      "Ġ1452": 6018,
      "Ġ1324": 6019,
      "Ġ1368": 6020,
      "Ġ1848": 6021,
      "Ġ1892": 6022,
      "Ġ1852": 6023,
      "Ġ191": 6024,
      "Ġ1920": 6025,
      "Ġ1916": 6026,
      "Ġ1968": 6027,
      "Ġ1986": 6028,
      "009": 6029,
      "155": 6030,
      "Ġ1725": 6031,
      "Ġ1731": 6032,
      "Ġ1752": 6033,
      "Ġ1767": 6034,
      "Ġ2043": 6035,
      "ĠOIA": 6036,
      "Ġ301": 6037,
      "Ġ302": 6038,
      "Ġ307": 6039,
      "Ġ283": 6040,
      "Ġ2853": 6041,
      "Ġ2885": 6042,
      "177": 6043,
      "Ġ277": 6044,
      "Ġ278": 6045,
      "Ġ2795": 6046,
      "Ġ2256": 6047,
      "Ġ2274": 6048,
      "189": 6049,
      "990": 6050,
      "Ġ2385": 6051,
      "Ġ2376": 6052,
      "Ġ265": 6053,
      "Ġ365": 6054,
      "Ġ3630": 6055,
      "Ġ3840": 6056,
      "253": 6057,
      "257": 6058,
      "Ġ502": 6059,
      "Ġ503": 6060,
      "Ġ505": 6061,
      "2424": 6062,
      "Ġ3730": 6063,
      "Ġ((((": 6064,
      "Ġ358": 6065,
      "Ġ332": 6066,
      "Ġ339": 6067,
      "Ġ3300": 6068,
      "Ġ3384": 6069,
      "283": 6070,
      "266": 6071,
      "Ġ3936": 6072,
      "ĠNewt": 6073,
      "404": 6074,
      "Ġ565": 6075,
      "Ġ568": 6076,
      "Ġ457": 6077,
      "Ġ459": 6078,
      "Ġ4445": 6079,
      "Ġ1008": 6080,
      "Ġ542": 6081,
      "Ġ545": 6082,
      "385": 6083,
      "358": 6084,
      "366": 6085,
      "3600": 6086,
      "Ġ641": 6087,
      "Ġ642": 6088,
      "Ġ649": 6089,
      "Ġ6416": 6090,
      "Ġ803": 6091,
      "Ġ809": 6092,
      "561": 6093,
      "Ġ5752": 6094,
      "Ġ490": 6095,
      "394": 6096,
      "396": 6097,
      "370": 6098,
      "Ġ843": 6099,
      "Ġ583": 6100,
      "Ġ588": 6101,
      "Ġ902": 6102,
      "Ġ664": 6103,
      "Ġ669": 6104,
      "Ġ6600": 6105,
      "Ġ6680": 6106,
      "Ġ7083": 6107,
      "Ġ7065": 6108,
      "Ġ961": 6109,
      "Ġ963": 6110,
      "Ġ965": 6111,
      "Ġ4314": 6112,
      "Ġ862": 6113,
      "Ġ863": 6114,
      "573": 6115,
      "Ġ7218": 6116,
      "Ġ597": 6117,
      "Ġ5944": 6118,
      "Ġ686": 6119,
      "Ġ687": 6120,
      "Ġ6849": 6121,
      "648": 6122,
      "Ġ877": 6123,
      "Ġ773": 6124,
      "Ġ677": 6125,
      "Ġ6768": 6126,
      "Ġ886": 6127,
      "Ġ766": 6128,
      "Ġ7542": 6129,
      "Ġ1209": 6130,
      "476": 6131,
      "Ġ652": 6132,
      "Ġ659": 6133,
      "Ġ6531": 6134,
      "603": 6135,
      "Ġ893": 6136,
      "Ġ898": 6137,
      "Canberra": 6138,
      "962": 6139,
      "Ġ1089": 6140,
      "887": 6141,
      "Ġ852": 6142,
      "Ġ982": 6143,
      "Ġ986": 6144,
      "Ġ987": 6145,
      "Ġ989": 6146,
      "982": 6147,
      "Ġ4008": 6148,
      "Ġ7938": 6149,
      "Ġ974": 6150,
      "Ġ979": 6151,
      "979": 6152,
      "Ġ1574": 6153,
      "Ġ4403": 6154,
      "Ġ8406": 6155,
      "Ġ3102": 6156,
      "Ġ3104": 6157,
      "Ġ4293": 6158,
      "Ġ2176": 6159,
      "Greek": 6160,
      "ĠEOE": 6161,
      "ĠEOI": 6162,
      "ĠIEA": 6163,
      "Islamabad": 6164,
      "Bangkok": 6165,
      "Indones": 6166,
      "Ġ4272": 6167,
      "ĠIOE": 6168,
      "ĠIOI": 6169,
      "Amsterdam": 6170,
      "American": 6171,
      "Rupee": 6172,
      "Beijing": 6173,
      "Dhaka": 6174,
      "Krone": 6175,
      "220": 6176,
      "215": 6177,
      "213": 6178,
      "216": 6179,
      "225": 6180,
      "229": 6181,
      "334": 6182,
      "336": 6183,
      "414": 6184,
      "419": 6185,
      "429": 6186,
      "440": 6187,
      "4310": 6188,
      "435": 6189,
      "496": 6190,
      "513": 6191,
      "517": 6192,
      "558": 6193,
      "570": 6194,
      "544": 6195,
      "592": 6196,
      "5288": 6197,
      "620": 6198,
      "615": 6199,
      "699": 6200,
      "629": 6201,
      "644": 6202,
      "696": 6203,
      "720": 6204,
      "724": 6205,
      "726": 6206,
      "735": 6207,
      "748": 6208,
      "794": 6209,
      "788": 6210,
      "797": 6211,
      "825": 6212,
      "829": 6213,
      "823": 6214,
      "8123": 6215,
      "835": 6216,
      "839": 6217,
      "837": 6218,
      "896": 6219,
      "875": 6220,
      "897": 6221,
      "916": 6222,
      "917": 6223,
      "929": 6224,
      "950": 6225,
      "938": 6226,
      "936": 6227,
      "980": 6228,
      "954": 6229,
      "948": 6230,
      "988": 6231,
      "9288": 6232,
      "Athens": 6233,
      "Accra": 6234,
      "Bern": 6235,
      "Dinar": 6236,
      "Dublin": 6237,
      "Helsinki": 6238,
      "Jerusalem": 6239,
      "Kore": 6240,
      "Kampala": 6241,
      "Mandarin": 6242,
      "Montevideo": 6243,
      "Ottawa": 6244,
      "Py": 6245,
      "Pound": 6246,
      "Paris": 6247,
      "Persian": 6248,
      "Riy": 6249,
      "Ruble": 6250,
      "Yen": 6251,
      "Ġ2100": 6252,
      "Ġ2128": 6253,
      "Ġ3123": 6254,
      "Ġ3205": 6255,
      "Ġ3999": 6256,
      "Ġ3187": 6257,
      "Ġ3128": 6258,
      "Ġ3162": 6259,
      "Ġ3119": 6260,
      "ĠIAA": 6261,
      "Ġ415": 6262,
      "Ġ4100": 6263,
      "Ġ422": 6264,
      "Ġ439": 6265,
      "Ġ4187": 6266,
      "Ġ4108": 6267,
      "Ġ4162": 6268,
      "Ġ4170": 6269,
      "Ġ524": 6270,
      "Ġ5100": 6271,
      "Ġ535": 6272,
      "Ġ556": 6273,
      "Ġ533": 6274,
      "Ġ5187": 6275,
      "Ġ5200": 6276,
      "Ġ632": 6277,
      "Ġ670": 6278,
      "Ġ654": 6279,
      "Ġ817": 6280,
      "Ġ829": 6281,
      "Ġ8000": 6282,
      "Ġ830": 6283,
      "Ġ839": 6284,
      "Ġ890": 6285,
      "Ġ727": 6286,
      "Ġ721": 6287,
      "Ġ739": 6288,
      "Ġ731": 6289,
      "Ġ753": 6290,
      "Ġ754": 6291,
      "Ġ745": 6292,
      "Ġ796": 6293,
      "Ġ911": 6294,
      "Ġ916": 6295,
      "Ġ914": 6296,
      "Ġ918": 6297,
      "Ġ923": 6298,
      "Ġ9100": 6299,
      "Ġ922": 6300,
      "Ġ980": 6301,
      "Ġ952": 6302,
      "Ġ1015": 6303,
      "Ġ1013": 6304,
      "Ġ1025": 6305,
      "Ġ1034": 6306,
      "Ġ1035": 6307,
      "Ġ1045": 6308,
      "Ġ1093": 6309,
      "Ġ1075": 6310,
      "Ġ1049": 6311,
      "Ġ1098": 6312,
      "Ġ1077": 6313,
      "Ġ1100": 6314,
      "Ġ1117": 6315,
      "Ġ1129": 6316,
      "Ġ1127": 6317,
      "Ġ1150": 6318,
      "Ġ1131": 6319,
      "Ġ1180": 6320,
      "Ġ1144": 6321,
      "Ġ1154": 6322,
      "Ġ1163": 6323,
      "Ġ1181": 6324,
      "Ġ1193": 6325,
      "Ġ1196": 6326,
      "Ġ1192": 6327,
      "Ġ1161": 6328,
      "Ġ1197": 6329,
      "Ġ1101": 6330,
      "Ġ1189": 6331,
      "Ġ1210": 6332,
      "Ġ1211": 6333,
      "Ġ1217": 6334,
      "Ġ1219": 6335,
      "Ġ1218": 6336,
      "Ġ1225": 6337,
      "Ġ1229": 6338,
      "Ġ1226": 6339,
      "Ġ1238": 6340,
      "Ġ1236": 6341,
      "Ġ1237": 6342,
      "Ġ1270": 6343,
      "Ġ1253": 6344,
      "Ġ1263": 6345,
      "Ġ1251": 6346,
      "Ġ1246": 6347,
      "Ġ1267": 6348,
      "Ġ1269": 6349,
      "Ġ12240": 6350,
      "Ġ12648": 6351,
      "102": 6352,
      "204": 6353,
      "124": 6354,
      "1240": 6355,
      "Ġ1610": 6356,
      "Ġ1616": 6357,
      "Ġ16000": 6358,
      "Ġ1630": 6359,
      "Ġ1634": 6360,
      "Ġ1650": 6361,
      "Ġ1658": 6362,
      "Ġ1680": 6363,
      "Ġ1660": 6364,
      "Ġ1686": 6365,
      "Ġ1649": 6366,
      "Ġ1652": 6367,
      "Ġ1676": 6368,
      "Ġ16200": 6369,
      "Ġ1674": 6370,
      "Ġ1512": 6371,
      "Ġ1514": 6372,
      "Ġ1525": 6373,
      "Ġ15520": 6374,
      "Ġ1534": 6375,
      "Ġ1556": 6376,
      "Ġ1539": 6377,
      "Ġ1542": 6378,
      "Ġ1580": 6379,
      "Ġ1554": 6380,
      "Ġ1583": 6381,
      "Ġ1575": 6382,
      "Ġ1549": 6383,
      "Ġ1561": 6384,
      "Ġ1584": 6385,
      "Ġ1567": 6386,
      "Ġ1582": 6387,
      "Ġ1589": 6388,
      "1146": 6389,
      "Ġ1417": 6390,
      "Ġ1499": 6391,
      "Ġ14000": 6392,
      "Ġ1422": 6393,
      "Ġ1436": 6394,
      "Ġ1437": 6395,
      "Ġ1457": 6396,
      "Ġ1490": 6397,
      "Ġ1460": 6398,
      "Ġ1455": 6399,
      "Ġ1493": 6400,
      "Ġ1466": 6401,
      "Ġ1472": 6402,
      "Ġ1483": 6403,
      "Ġ1475": 6404,
      "Ġ1484": 6405,
      "Ġ1467": 6406,
      "Ġ1471": 6407,
      "Ġ1489": 6408,
      "Ġ14160": 6409,
      "Ġ14600": 6410,
      "Ġ1316": 6411,
      "Ġ1325": 6412,
      "Ġ13000": 6413,
      "Ġ1323": 6414,
      "Ġ1328": 6415,
      "Ġ1326": 6416,
      "Ġ1333": 6417,
      "Ġ1342": 6418,
      "Ġ1370": 6419,
      "Ġ1354": 6420,
      "Ġ1347": 6421,
      "Ġ1343": 6422,
      "Ġ1381": 6423,
      "Ġ1366": 6424,
      "Ġ1383": 6425,
      "Ġ1386": 6426,
      "Ġ1349": 6427,
      "Ġ1362": 6428,
      "Ġ1378": 6429,
      "Ġ1810": 6430,
      "Ġ1812": 6431,
      "Ġ1817": 6432,
      "Ġ1818": 6433,
      "Ġ1824": 6434,
      "Ġ1827": 6435,
      "Ġ1830": 6436,
      "Ġ1821": 6437,
      "Ġ1834": 6438,
      "Ġ1835": 6439,
      "Ġ1856": 6440,
      "Ġ1853": 6441,
      "Ġ1885": 6442,
      "Ġ1855": 6443,
      "Ġ1866": 6444,
      "Ġ1865": 6445,
      "Ġ1875": 6446,
      "Ġ1841": 6447,
      "Ġ1846": 6448,
      "Ġ1898": 6449,
      "Ġ1867": 6450,
      "Ġ1918": 6451,
      "Ġ1999": 6452,
      "Ġ1925": 6453,
      "Ġ1940": 6454,
      "Ġ1950": 6455,
      "Ġ1956": 6456,
      "Ġ1931": 6457,
      "Ġ1942": 6458,
      "Ġ1980": 6459,
      "Ġ1953": 6460,
      "Ġ1954": 6461,
      "Ġ1995": 6462,
      "Ġ1941": 6463,
      "Ġ1908": 6464,
      "Ġ19320": 6465,
      "Ġ1997": 6466,
      "Ġ1973": 6467,
      "Ġ19200": 6468,
      "Ġ1987": 6469,
      "Ġ1979": 6470,
      "Ġ1989": 6471,
      "Ġ1991": 6472,
      "Ġ19240": 6473,
      "Ġ19887": 6474,
      "008": 6475,
      "157": 6476,
      "158": 6477,
      "Ġ179": 6478,
      "Ġ1720": 6479,
      "Ġ1726": 6480,
      "Ġ1750": 6481,
      "Ġ1738": 6482,
      "Ġ1739": 6483,
      "Ġ1758": 6484,
      "Ġ1742": 6485,
      "Ġ1785": 6486,
      "Ġ1781": 6487,
      "Ġ1772": 6488,
      "Ġ1786": 6489,
      "Ġ1706": 6490,
      "Ġ1782": 6491,
      "Ġ1769": 6492,
      "Ġ1774": 6493,
      "Ġ202": 6494,
      "Ġ2012": 6495,
      "Ġ2011": 6496,
      "Ġ2014": 6497,
      "Ġ2018": 6498,
      "Ġ2030": 6499,
      "Ġ2040": 6500,
      "Ġ2038": 6501,
      "Ġ2058": 6502,
      "Ġ2042": 6503,
      "Ġ2053": 6504,
      "Ġ2044": 6505,
      "Ġ2090": 6506,
      "Ġ2066": 6507,
      "Ġ2065": 6508,
      "Ġ2088": 6509,
      "Ġ2052": 6510,
      "Ġ2082": 6511,
      "Ġ2069": 6512,
      "Ġ2089": 6513,
      "Ġ20160": 6514,
      "Ġ20400": 6515,
      "Ġ20119": 6516,
      "Ġ20560": 6517,
      "Ġ20677": 6518,
      "Ġ2420": 6519,
      "Ġ2411": 6520,
      "Ġ2413": 6521,
      "Ġ2418": 6522,
      "Ġ2427": 6523,
      "Ġ2421": 6524,
      "Ġ2432": 6525,
      "Ġ2434": 6526,
      "Ġ2435": 6527,
      "Ġ2436": 6528,
      "Ġ2458": 6529,
      "Ġ2442": 6530,
      "Ġ2444": 6531,
      "Ġ2445": 6532,
      "Ġ2468": 6533,
      "Ġ2465": 6534,
      "Ġ2451": 6535,
      "Ġ2441": 6536,
      "Ġ2406": 6537,
      "Ġ2482": 6538,
      "Ġ2471": 6539,
      "Ġ2459": 6540,
      "Ġ2489": 6541,
      "Ġ2491": 6542,
      "Ġ24930": 6543,
      "ĠOAE": 6544,
      "Ġ3012": 6545,
      "Ġ3019": 6546,
      "Ġ3029": 6547,
      "Ġ3023": 6548,
      "Ġ3030": 6549,
      "Ġ3042": 6550,
      "Ġ3070": 6551,
      "Ġ3053": 6552,
      "Ġ3064": 6553,
      "Ġ3092": 6554,
      "Ġ3051": 6555,
      "Ġ3088": 6556,
      "Ġ3041": 6557,
      "Ġ3052": 6558,
      "Ġ30320": 6559,
      "Ġ3061": 6560,
      "Ġ3073": 6561,
      "Ġ3077": 6562,
      "Ġ3091": 6563,
      "Ġ30600": 6564,
      "Ġ2500": 6565,
      "Ġ2527": 6566,
      "Ġ2521": 6567,
      "Ġ2550": 6568,
      "Ġ2538": 6569,
      "Ġ2531": 6570,
      "Ġ2548": 6571,
      "Ġ2590": 6572,
      "Ġ2594": 6573,
      "Ġ2541": 6574,
      "Ġ2549": 6575,
      "Ġ2584": 6576,
      "Ġ2506": 6577,
      "Ġ2573": 6578,
      "Ġ2576": 6579,
      "Ġ2582": 6580,
      "Ġ2578": 6581,
      "Ġ2579": 6582,
      "Ġ25560": 6583,
      "Ġ2811": 6584,
      "Ġ2813": 6585,
      "Ġ2819": 6586,
      "Ġ2823": 6587,
      "Ġ2830": 6588,
      "Ġ2835": 6589,
      "Ġ2839": 6590,
      "Ġ2858": 6591,
      "Ġ2854": 6592,
      "Ġ2845": 6593,
      "Ġ2883": 6594,
      "Ġ2895": 6595,
      "Ġ2841": 6596,
      "Ġ2861": 6597,
      "Ġ2867": 6598,
      "Ġ2869": 6599,
      "Ġ2889": 6600,
      "Ġ28600": 6601,
      "130": 6602,
      "131": 6603,
      "132": 6604,
      "138": 6605,
      "146": 6606,
      "1431": 6607,
      "173": 6608,
      "Ġ274": 6609,
      "Ġ2720": 6610,
      "Ġ2712": 6611,
      "Ġ2714": 6612,
      "Ġ2719": 6613,
      "Ġ2726": 6614,
      "Ġ2721": 6615,
      "Ġ2732": 6616,
      "Ġ2756": 6617,
      "Ġ2742": 6618,
      "Ġ2770": 6619,
      "Ġ2757": 6620,
      "Ġ2744": 6621,
      "Ġ2748": 6622,
      "Ġ2755": 6623,
      "Ġ2763": 6624,
      "Ġ2794": 6625,
      "Ġ2788": 6626,
      "Ġ2775": 6627,
      "Ġ2786": 6628,
      "Ġ2782": 6629,
      "Ġ27200": 6630,
      "Ġ2759": 6631,
      "Ġ2779": 6632,
      "Ġ2789": 6633,
      "Ġ27240": 6634,
      "Ġ27780": 6635,
      "1970": 6636,
      "1983": 6637,
      "Ġ226": 6638,
      "Ġ229": 6639,
      "Ġ2210": 6640,
      "Ġ2218": 6641,
      "Ġ2299": 6642,
      "Ġ2222": 6643,
      "Ġ2232": 6644,
      "Ġ2238": 6645,
      "Ġ2242": 6646,
      "Ġ2280": 6647,
      "Ġ2257": 6648,
      "Ġ2244": 6649,
      "Ġ2264": 6650,
      "Ġ2260": 6651,
      "Ġ2286": 6652,
      "Ġ2249": 6653,
      "Ġ2261": 6654,
      "Ġ2284": 6655,
      "Ġ2267": 6656,
      "Ġ2282": 6657,
      "Ġ2278": 6658,
      "Ġ2279": 6659,
      "Ġ2289": 6660,
      "Ġ22792": 6661,
      "Ġ223600": 6662,
      "180": 6663,
      "182": 6664,
      "188": 6665,
      "996": 6666,
      "Ġ236": 6667,
      "Ġ2310": 6668,
      "Ġ2311": 6669,
      "Ġ2300": 6670,
      "Ġ2315": 6671,
      "Ġ2314": 6672,
      "Ġ2319": 6673,
      "Ġ2329": 6674,
      "Ġ2328": 6675,
      "Ġ2326": 6676,
      "Ġ2330": 6677,
      "Ġ2340": 6678,
      "Ġ2337": 6679,
      "Ġ2331": 6680,
      "Ġ2380": 6681,
      "Ġ2344": 6682,
      "Ġ2343": 6683,
      "Ġ2360": 6684,
      "Ġ2355": 6685,
      "Ġ2393": 6686,
      "Ġ2396": 6687,
      "Ġ2366": 6688,
      "Ġ2395": 6689,
      "Ġ2386": 6690,
      "Ġ2349": 6691,
      "Ġ2398": 6692,
      "Ġ2384": 6693,
      "Ġ2359": 6694,
      "Ġ2379": 6695,
      "Ġ23650": 6696,
      "Ġ409": 6697,
      "Ġ4023": 6698,
      "Ġ4058": 6699,
      "Ġ4095": 6700,
      "Ġ4071": 6701,
      "Ġ4091": 6702,
      "Ġ40404": 6703,
      "Ġ2613": 6704,
      "Ġ2616": 6705,
      "Ġ2699": 6706,
      "Ġ26000": 6707,
      "Ġ2626": 6708,
      "Ġ2630": 6709,
      "Ġ2638": 6710,
      "Ġ2670": 6711,
      "Ġ2657": 6712,
      "Ġ2653": 6713,
      "Ġ2664": 6714,
      "Ġ2690": 6715,
      "Ġ2643": 6716,
      "Ġ2655": 6717,
      "Ġ2692": 6718,
      "Ġ2665": 6719,
      "Ġ2688": 6720,
      "Ġ2641": 6721,
      "Ġ2652": 6722,
      "Ġ2698": 6723,
      "Ġ2661": 6724,
      "Ġ2606": 6725,
      "Ġ2676": 6726,
      "Ġ2682": 6727,
      "Ġ2659": 6728,
      "Ġ2678": 6729,
      "Ġ3611": 6730,
      "Ġ3613": 6731,
      "Ġ3614": 6732,
      "Ġ3625": 6733,
      "Ġ3623": 6734,
      "Ġ3628": 6735,
      "Ġ3640": 6736,
      "Ġ3658": 6737,
      "Ġ3680": 6738,
      "Ġ3657": 6739,
      "Ġ3653": 6740,
      "Ġ3644": 6741,
      "Ġ3643": 6742,
      "Ġ3693": 6743,
      "Ġ3666": 6744,
      "Ġ3695": 6745,
      "Ġ3694": 6746,
      "Ġ3673": 6747,
      "Ġ3676": 6748,
      "Ġ3678": 6749,
      "Ġ3679": 6750,
      "Ġ3691": 6751,
      "Ġ36600": 6752,
      "Ġ36603": 6753,
      "Ġ2920": 6754,
      "Ġ2900": 6755,
      "Ġ2927": 6756,
      "Ġ2930": 6757,
      "Ġ2940": 6758,
      "Ġ2932": 6759,
      "Ġ2934": 6760,
      "Ġ2950": 6761,
      "Ġ2938": 6762,
      "Ġ2936": 6763,
      "Ġ2956": 6764,
      "Ġ2942": 6765,
      "Ġ2957": 6766,
      "Ġ2953": 6767,
      "Ġ2960": 6768,
      "Ġ2981": 6769,
      "Ġ2983": 6770,
      "Ġ2965": 6771,
      "Ġ2941": 6772,
      "Ġ2946": 6773,
      "Ġ2986": 6774,
      "Ġ2961": 6775,
      "Ġ2971": 6776,
      "Ġ29840": 6777,
      "Ġ29283": 6778,
      "Ġ291431": 6779,
      "Ġ2120": 6780,
      "Ġ383": 6781,
      "Ġ3800": 6782,
      "Ġ3815": 6783,
      "Ġ3819": 6784,
      "Ġ3899": 6785,
      "Ġ3825": 6786,
      "Ġ3829": 6787,
      "Ġ38100": 6788,
      "Ġ3832": 6789,
      "Ġ3836": 6790,
      "Ġ3831": 6791,
      "Ġ3880": 6792,
      "Ġ3853": 6793,
      "Ġ3875": 6794,
      "Ġ3869": 6795,
      "Ġ38160": 6796,
      "Ġ3891": 6797,
      "Ġ321": 6798,
      "Ġ3210": 6799,
      "Ġ3211": 6800,
      "Ġ3213": 6801,
      "Ġ3217": 6802,
      "Ġ3218": 6803,
      "Ġ3225": 6804,
      "Ġ3229": 6805,
      "Ġ3223": 6806,
      "Ġ3230": 6807,
      "Ġ3222": 6808,
      "Ġ3240": 6809,
      "Ġ3238": 6810,
      "Ġ3235": 6811,
      "Ġ3256": 6812,
      "Ġ3270": 6813,
      "Ġ3253": 6814,
      "Ġ3248": 6815,
      "Ġ3285": 6816,
      "Ġ3290": 6817,
      "Ġ3243": 6818,
      "Ġ3281": 6819,
      "Ġ3251": 6820,
      "Ġ3298": 6821,
      "Ġ3297": 6822,
      "Ġ3277": 6823,
      "Ġ3271": 6824,
      "Ġ3287": 6825,
      "Ġ3274": 6826,
      "Ġ32640": 6827,
      "259": 6828,
      "Ġ4816": 6829,
      "Ġ4829": 6830,
      "Ġ4830": 6831,
      "Ġ4822": 6832,
      "Ġ4850": 6833,
      "Ġ4835": 6834,
      "Ġ4890": 6835,
      "Ġ4865": 6836,
      "Ġ4894": 6837,
      "Ġ4876": 6838,
      "Ġ4877": 6839,
      "Ġ4859": 6840,
      "Ġ48780": 6841,
      "Ġ349": 6842,
      "Ġ3411": 6843,
      "Ġ3414": 6844,
      "Ġ3499": 6845,
      "Ġ3423": 6846,
      "Ġ3422": 6847,
      "Ġ3442": 6848,
      "Ġ3444": 6849,
      "Ġ3443": 6850,
      "Ġ3463": 6851,
      "Ġ3483": 6852,
      "Ġ3441": 6853,
      "Ġ3449": 6854,
      "Ġ3467": 6855,
      "Ġ3482": 6856,
      "Ġ3477": 6857,
      "Ġ3459": 6858,
      "Ġ3489": 6859,
      "Ġ34185": 6860,
      "290": 6861,
      "Ġ508": 6862,
      "Ġ509": 6863,
      "Ġ5010": 6864,
      "Ġ5054": 6865,
      "Ġ5085": 6866,
      "279": 6867,
      "2716": 6868,
      "Ġ3738": 6869,
      "Ġ3739": 6870,
      "Ġ3770": 6871,
      "Ġ3744": 6872,
      "Ġ3760": 6873,
      "Ġ3745": 6874,
      "Ġ3796": 6875,
      "Ġ3792": 6876,
      "Ġ37320": 6877,
      "Ġ3769": 6878,
      "Ġ3787": 6879,
      "Ġ37600": 6880,
      "Ġ353": 6881,
      "Ġ3518": 6882,
      "Ġ3525": 6883,
      "Ġ3558": 6884,
      "Ġ3564": 6885,
      "Ġ3545": 6886,
      "Ġ3581": 6887,
      "Ġ3566": 6888,
      "Ġ3594": 6889,
      "Ġ3575": 6890,
      "Ġ3586": 6891,
      "Ġ3552": 6892,
      "Ġ3561": 6893,
      "Ġ3506": 6894,
      "Ġ3591": 6895,
      "Ġ35950": 6896,
      "Ġ334": 6897,
      "Ġ3312": 6898,
      "Ġ3317": 6899,
      "Ġ3332": 6900,
      "Ġ3337": 6901,
      "Ġ3333": 6902,
      "Ġ3358": 6903,
      "Ġ3355": 6904,
      "Ġ3345": 6905,
      "Ġ3381": 6906,
      "Ġ3393": 6907,
      "Ġ3396": 6908,
      "Ġ3372": 6909,
      "Ġ3365": 6910,
      "Ġ3394": 6911,
      "Ġ3306": 6912,
      "Ġ3301": 6913,
      "Ġ3373": 6914,
      "Ġ3362": 6915,
      "Ġ3379": 6916,
      "Ġ3374": 6917,
      "Ġ33174": 6918,
      "Ġ331970": 6919,
      "230": 6920,
      "233": 6921,
      "2363": 6922,
      "2666": 6923,
      "308": 6924,
      "Ġ31200": 6925,
      "Ġ3920": 6926,
      "Ġ3919": 6927,
      "Ġ39000": 6928,
      "Ġ3926": 6929,
      "Ġ3930": 6930,
      "Ġ3939": 6931,
      "Ġ3958": 6932,
      "Ġ3948": 6933,
      "Ġ3985": 6934,
      "Ġ3955": 6935,
      "Ġ3965": 6936,
      "Ġ3988": 6937,
      "Ġ3941": 6938,
      "Ġ3967": 6939,
      "Ġ3973": 6940,
      "Ġ3971": 6941,
      "3102": 6942,
      "Quito": 6943,
      "Ġ562": 6944,
      "Ġ566": 6945,
      "Ġ569": 6946,
      "Ġ5619": 6947,
      "Ġ5623": 6948,
      "Ġ5670": 6949,
      "Ġ5666": 6950,
      "Ġ5686": 6951,
      "Ġ453": 6952,
      "Ġ454": 6953,
      "Ġ4534": 6954,
      "Ġ4584": 6955,
      "Ġ443": 6956,
      "Ġ4400": 6957,
      "Ġ4425": 6958,
      "Ġ4423": 6959,
      "Ġ44100": 6960,
      "Ġ4450": 6961,
      "Ġ4433": 6962,
      "Ġ4480": 6963,
      "Ġ4444": 6964,
      "Ġ4463": 6965,
      "Ġ4466": 6966,
      "Ġ4467": 6967,
      "Ġ4482": 6968,
      "Ġ44640": 6969,
      "Ġ1001": 6970,
      "Ġ1004": 6971,
      "Ġ5414": 6972,
      "Ġ5440": 6973,
      "Ġ5473": 6974,
      "3223": 6975,
      "Ġ469": 6976,
      "Ġ4620": 6977,
      "Ġ4618": 6978,
      "Ġ4623": 6979,
      "Ġ4622": 6980,
      "Ġ4640": 6981,
      "Ġ4680": 6982,
      "Ġ4644": 6983,
      "Ġ4685": 6984,
      "Ġ4645": 6985,
      "Ġ4661": 6986,
      "Ġ46128": 6987,
      "Ġ4606": 6988,
      "Ġ4674": 6989,
      "Ġ991": 6990,
      "Ġ994": 6991,
      "Ġ996": 6992,
      "Ġ998": 6993,
      "Ġ9940": 6994,
      "Ġ9975": 6995,
      "341": 6996,
      "342": 6997,
      "347": 6998,
      "387": 6999,
      "389": 7000,
      "352": 7001,
      "Ġ6046": 7002,
      "Ġ6052": 7003,
      "Ġ60200": 7004,
      "365": 7005,
      "368": 7006,
      "Ġ643": 7007,
      "Ġ644": 7008,
      "Ġ6429": 7009,
      "Ġ6488": 7010,
      "Ġ806": 7011,
      "Ġ579": 7012,
      "Ġ5714": 7013,
      "Ġ5768": 7014,
      "Ġ5782": 7015,
      "Ġ4923": 7016,
      "Ġ4958": 7017,
      "Ġ4955": 7018,
      "Ġ4984": 7019,
      "Ġ4969": 7020,
      "Ġ49385": 7021,
      "Ġ5550": 7022,
      "Ġ4210": 7023,
      "Ġ4219": 7024,
      "Ġ4299": 7025,
      "Ġ4225": 7026,
      "374": 7027,
      "376": 7028,
      "Ġ842": 7029,
      "Ġ844": 7030,
      "Ġ849": 7031,
      "Ġ8400": 7032,
      "Ġ8460": 7033,
      "Ġ582": 7034,
      "Ġ586": 7035,
      "Ġ58962": 7036,
      "Ġ905": 7037,
      "Ġ9053": 7038,
      "Ġ661": 7039,
      "Ġ66000": 7040,
      "Ġ66600": 7041,
      "Ġ701": 7042,
      "Ġ705": 7043,
      "Ġ7050": 7044,
      "Ġ962": 7045,
      "Ġ964": 7046,
      "Ġ967": 7047,
      "Ġ9600": 7048,
      "Ġ96224": 7049,
      "Ġ6229": 7050,
      "582": 7051,
      "589": 7052,
      "Ġ4710": 7053,
      "Ġ4785": 7054,
      "Ġ4745": 7055,
      "Ġ4761": 7056,
      "Ġ4767": 7057,
      "Ġ473102": 7058,
      "Ġ4300": 7059,
      "Ġ4315": 7060,
      "Ġ4399": 7061,
      "Ġ4335": 7062,
      "Ġ860": 7063,
      "805": 7064,
      "Ġ1441": 7065,
      "5786": 7066,
      "Ġ947": 7067,
      "Ġ9480": 7068,
      "Ġ694": 7069,
      "Ġ697": 7070,
      "Ġ6900": 7071,
      "Ġ6963": 7072,
      "Ġ69223": 7073,
      "Ġ591": 7074,
      "Ġ596": 7075,
      "Ġ5957": 7076,
      "Ġ5985": 7077,
      "Ġ5979": 7078,
      "Ġ688": 7079,
      "Ġ6800": 7080,
      "Ġ68370": 7081,
      "Ġ871": 7082,
      "Ġ876": 7083,
      "Ġ771": 7084,
      "Ġ779": 7085,
      "Ġ77600": 7086,
      "543": 7087,
      "Ġ6748": 7088,
      "Ġ885": 7089,
      "Ġ8800": 7090,
      "Ġ88173": 7091,
      "Ġ769": 7092,
      "Ġ7600": 7093,
      "Ġ7695": 7094,
      "Ġ7500": 7095,
      "Ġ7590": 7096,
      "Ġ1207": 7097,
      "474": 7098,
      "479": 7099,
      "851": 7100,
      "902363": 7101,
      "Ġ892": 7102,
      "Ġ894": 7103,
      "Ġ3245": 7104,
      "Ġ32400": 7105,
      "Ġ1691": 7106,
      "Ġ1694": 7107,
      "Ġ1698": 7108,
      "Ġ169200": 7109,
      "451": 7110,
      "684": 7111,
      "Ġ7426": 7112,
      "Ġ74160": 7113,
      "Ġ74984": 7114,
      "Ġ1082": 7115,
      "Ġ10800": 7116,
      "Ġ108394": 7117,
      "Ġ1807": 7118,
      "Ġ18042": 7119,
      "Ġ5340": 7120,
      "Ġ2561": 7121,
      "Ġ25610": 7122,
      "Ġ57600": 7123,
      "7590": 7124,
      "Ġ8514": 7125,
      "Ġ7290": 7126,
      "Ġ1502": 7127,
      "Ġ1505": 7128,
      "Ġ1509": 7129,
      "Ġ15040": 7130,
      "Ġ2252": 7131,
      "Ġ22500": 7132,
      "Ġ225000": 7133,
      "462": 7134,
      "Ġ4001": 7135,
      "Ġ4003": 7136,
      "Ġ4006": 7137,
      "Ġ106000": 7138,
      "Ġ10650": 7139,
      "Ġ3146": 7140,
      "Ġ31400": 7141,
      "Ġ6110": 7142,
      "Ġ971": 7143,
      "Ġ973": 7144,
      "Ġ977": 7145,
      "Ġ1962": 7146,
      "Ġ1967": 7147,
      "Ġ1884": 7148,
      "Ġ18860": 7149,
      "Ġ18876": 7150,
      "Ġ10460": 7151,
      "Ġ13840": 7152,
      "Ġ1301": 7153,
      "Ġ1303": 7154,
      "Ġ1309": 7155,
      "Ġ130400": 7156,
      "Ġ24300": 7157,
      "Ġ3801": 7158,
      "Ġ3807": 7159,
      "978": 7160,
      "9714": 7161,
      "9723": 7162,
      "Ġ48430": 7163,
      "Ġ9340": 7164,
      "Ġ1571": 7165,
      "Ġ1578": 7166,
      "Ġ15768": 7167,
      "Ġ157400": 7168,
      "678": 7169,
      "Ġ1607": 7170,
      "Ġ2405": 7171,
      "Ġ2407": 7172,
      "Ġ2409": 7173,
      "Ġ28270": 7174,
      "Manila": 7175,
      "Ġ1059": 7176,
      "Ġ11060": 7177,
      "Ġ2007": 7178,
      "Ġ11600": 7179,
      "Ġ2102": 7180,
      "Ġ2107": 7181,
      "Ġ21012": 7182,
      "Ġ38400": 7183,
      "Ġ38465": 7184,
      "Ġ52960": 7185,
      "Ġ5304": 7186,
      "Ġ4803": 7187,
      "Ġ4804": 7188,
      "Ġ2164": 7189,
      "Ġ2166": 7190,
      "Ġ3206": 7191,
      "Ġ4507": 7192,
      "Ġ450400": 7193,
      "Ġ18612": 7194,
      "Ġ1891": 7195,
      "Ġ189200": 7196,
      "Norwegian": 7197,
      "Ġ12400": 7198,
      "Ġ11700": 7199,
      "Ġ4406": 7200,
      "Ġ4407": 7201,
      "Ġ4201": 7202,
      "Ġ42000": 7203,
      "Ġ4370": 7204,
      "Ġ27950": 7205,
      "Ġ27960": 7206,
      "Ġ3152": 7207,
      "Ġ31500": 7208,
      "Ġ4250": 7209,
      "Ġ4257": 7210,
      "Ġ42500": 7211,
      "Ġ42570": 7212,
      "Ġ16530": 7213,
      "Ġ16890": 7214,
      "Ġ2181": 7215,
      "Ġ7560": 7216,
      "Ġ2603": 7217,
      "Ġ2609": 7218,
      "Ġ4185": 7219,
      "Ġ4186": 7220,
      "Ġ4188": 7221,
      "Ġ190500": 7222,
      "Ġ3503": 7223,
      "Ġ2702": 7224,
      "Ġ560400": 7225,
      "Ġ3006": 7226,
      "Ġ2208": 7227,
      "Ġ3101": 7228,
      "Ġ31050": 7229,
      "Ġ4295": 7230,
      "Ġ14570": 7231,
      "Ġ45660": 7232,
      "Italian": 7233,
      "Thai": 7234,
      "Ġ5280": 7235,
      "Ġ15510": 7236,
      "Ġ15500": 7237,
      "Ġ17226": 7238,
      "Ġ172116": 7239,
      "Ġ20412": 7240,
      "ĠOEE": 7241,
      "Ġ2173": 7242,
      "Ġ2177": 7243,
      "Ġ2991": 7244,
      "Ġ2992": 7245,
      "Ġ2996": 7246,
      "Ġ2998": 7247,
      "Ġ3133": 7248,
      "Ġ3134": 7249,
      "Ġ3137": 7250,
      "Ġ3138": 7251,
      "Ġ3139": 7252,
      "ĠEEO": 7253,
      "Ġ2503": 7254,
      "Ġ2504": 7255,
      "Ġ2507": 7256,
      "Ġ2509": 7257,
      "Ġ25038": 7258,
      "Ġ27500": 7259,
      "Ġ2132": 7260,
      "Ġ2134": 7261,
      "Ġ2139": 7262,
      "Ġ213000": 7263,
      "Ġ213600": 7264,
      "Ġ213323": 7265,
      "Ġ3191": 7266,
      "Ġ3194": 7267,
      "Ġ3197": 7268,
      "Ġ31980": 7269,
      "Ġ5180": 7270,
      "Ġ221200": 7271,
      "Ġ2302": 7272,
      "Ġ2303": 7273,
      "Ġ2309": 7274,
      "Ġ40796": 7275,
      "Ġ40795": 7276,
      "Ġ3903": 7277,
      "Ġ69300": 7278,
      "Ġ3127": 7279,
      "Ġ4261": 7280,
      "Ġ4264": 7281,
      "Ġ4266": 7282,
      "Ġ4267": 7283,
      "Ġ14850": 7284,
      "Ġ28832": 7285,
      "Algiers": 7286,
      "Ġ468979": 7287,
      "Ġ47340": 7288,
      "ĠIEE": 7289,
      "Ġ62930": 7290,
      "Ġ17064": 7291,
      "Ġ286200": 7292,
      "Ġ363000": 7293,
      "Ġ2902": 7294,
      "Ġ3402": 7295,
      "Ġ50760": 7296,
      "Ġ49442": 7297,
      "Ġ3179": 7298,
      "Ġ39900": 7299,
      "Ġ4102": 7300,
      "Ġ4103": 7301,
      "Ġ4107": 7302,
      "Ġ41000": 7303,
      "Ġ410319": 7304,
      "Ġ13455": 7305,
      "Ġ19530": 7306,
      "Ġ19596": 7307,
      "Ġ2141": 7308,
      "Ġ21462": 7309,
      "Ġ2190": 7310,
      "Ġ2195": 7311,
      "Ġ21984": 7312,
      "Ġ219573": 7313,
      "Ġ4115": 7314,
      "Ġ4118": 7315,
      "Ġ4131": 7316,
      "Ġ4134": 7317,
      "Ġ4139": 7318,
      "Ġ5344": 7319,
      "Ġ5346": 7320,
      "Ġ6204": 7321,
      "Ġ12960": 7322,
      "Ġ13502": 7323,
      "Ġ20880": 7324,
      "Ġ25350": 7325,
      "Ġ2116": 7326,
      "Ġ2118": 7327,
      "Ġ4342": 7328,
      "Ġ4349": 7329,
      "Ġ85527": 7330,
      "Ġ855144": 7331,
      "Ġ72814": 7332,
      "Ġ77040": 7333,
      "Ġ770400": 7334,
      "Ġ18480": 7335,
      "Ġ3181": 7336,
      "Ġ3186": 7337,
      "Ġ31800": 7338,
      "Ġ4195": 7339,
      "Ġ41900": 7340,
      "Ġ4273": 7341,
      "Ġ4351": 7342,
      "Ġ5208": 7343,
      "Ġ52038": 7344,
      "Ġ5005": 7345,
      "Ġ5231": 7346,
      "Ġ5265": 7347,
      "Ġ52640": 7348,
      "Ġ62874": 7349,
      "Ġ10944": 7350,
      "Ġ10983": 7351,
      "Ġ12760": 7352,
      "Ġ38857": 7353,
      "Ġ342161": 7354,
      "Ġ55900": 7355,
      "Ġ2157": 7356,
      "Ġ215000": 7357,
      "Ġ3166": 7358,
      "Ġ73038": 7359,
      "Ġ28500": 7360,
      "Ġ29632": 7361,
      "Ġ33840": 7362,
      "Ġ4609": 7363,
      "Urdu": 7364,
      "Ġ4231": 7365,
      "Ġ423436": 7366,
      "Ġ43851": 7367,
      "Ġ5172": 7368,
      "Ġ5253": 7369,
      "Ġ5259": 7370,
      "Ġ52509": 7371,
      "Ġ6270": 7372,
      "Ġ10260": 7373,
      "Ġ34816": 7374,
      "Ġ56700": 7375,
      "Ġ57060": 7376,
      "Ġ578146": 7377,
      "Ġ47740": 7378,
      "Ġ432000": 7379,
      "ĠIOA": 7380,
      "Ġ4124": 7381,
      "Ġ4126": 7382,
      "Ġ5159": 7383,
      "Ġ75800": 7384,
      "Ġ19944": 7385,
      "Ġ298400": 7386,
      "Ġ45838": 7387,
      "5607": 7388,
      "Ġ78720": 7389,
      "Ġ4249": 7390,
      "Ġ42453": 7391,
      "Ġ522153": 7392,
      "Ġ92926": 7393,
      "Ġ9360": 7394,
      "Ġ17700": 7395,
      "Ġ22290": 7396,
      "Ġ34300": 7397,
      "Ġ39800": 7398,
      "Ġ4702": 7399,
      "Ġ6907": 7400,
      "Ġ4174": 7401,
      "Ġ41750": 7402,
      "Ġ55090": 7403,
      "Ġ6370": 7404,
      "Ġ71424": 7405,
      "Ġ9405": 7406,
      "Ġ9552": 7407,
      "Ġ161406": 7408,
      "Ġ15925": 7409,
      "Ġ36260": 7410,
      "Ġ489300": 7411,
      "Ġ33750": 7412,
      "Ġ44928": 7413,
      "Ġ66870": 7414,
      "Ġ3114": 7415,
      "Ġ287202": 7416,
      "Ġ276500": 7417,
      "19728": 7418,
      "Ġ26730": 7419,
      "Ġ26838": 7420,
      "Ġ262500": 7421,
      "Ġ38700": 7422,
      "Ġ32775": 7423,
      "Ġ44859": 7424,
      "Ġ47866": 7425,
      "Ġ9855": 7426,
      "Ġ125080": 7427,
      "Ġ14925": 7428,
      "Ġ19710": 7429,
      "Ġ19602": 7430,
      "Ġ309096": 7431,
      "Ġ252884": 7432,
      "Ġ276924": 7433,
      "Ġ231628": 7434,
      "Ġ26005": 7435,
      "Ġ298500": 7436,
      "Ġ383200": 7437,
      "Ġ32508": 7438,
      "Ġ32946": 7439,
      "Ġ35532": 7440,
      "Ġ442080": 7441,
      "Ġ47472": 7442,
      "Ġ47475": 7443,
      "Ġ59408": 7444,
      "Ġ4289": 7445,
      "Ġ51930": 7446,
      "Ġ192000": 7447,
      "Ġ196800": 7448,
      "Ġ198600": 7449,
      "Ġ285300": 7450,
      "Ġ288500": 7451,
      "Ġ225600": 7452,
      "Ġ641600": 7453,
      "Ġ431400": 7454,
      "Ġ400800": 7455,
      "Indonesia": 7456,
      "6445": 7457,
      "Korean": 7458,
      "Pyongyang": 7459,
      "Ġ4397": 7460,
      "Ġ11448": 7461,
      "Ġ16608": 7462,
      "Ġ135453": 7463,
      "Ġ13662": 7464,
      "Ġ18183": 7465,
      "Ġ184616": 7466,
      "Ġ240690": 7467,
      "Ġ257850": 7468,
      "Ġ279456": 7469,
      "Ġ223212": 7470,
      "Ġ22607": 7471,
      "Ġ233045": 7472,
      "Ġ233760": 7473,
      "Ġ364452": 7474,
      "Ġ39886": 7475,
      "Ġ648818": 7476,
      "032": 7477,
      "095": 7478,
      "086": 7479,
      "098": 7480,
      "079": 7481,
      "0995": 7482,
      "1123": 7483,
      "212": 7484,
      "2160": 7485,
      "2150": 7486,
      "2154": 7487,
      "2190": 7488,
      "2148": 7489,
      "2196": 7490,
      "2295": 7491,
      "2266": 7492,
      "315": 7493,
      "399": 7494,
      "329": 7495,
      "327": 7496,
      "330": 7497,
      "322": 7498,
      "350": 7499,
      "339": 7500,
      "337": 7501,
      "3240": 7502,
      "3116": 7503,
      "3145": 7504,
      "3174": 7505,
      "3009": 7506,
      "3266": 7507,
      "412": 7508,
      "411": 7509,
      "424": 7510,
      "428": 7511,
      "430": 7512,
      "434": 7513,
      "450": 7514,
      "439": 7515,
      "470": 7516,
      "457": 7517,
      "454": 7518,
      "493": 7519,
      "466": 7520,
      "4170": 7521,
      "4384": 7522,
      "4995": 7523,
      "4603": 7524,
      "419728": 7525,
      "516": 7526,
      "514": 7527,
      "518": 7528,
      "599": 7529,
      "525": 7530,
      "523": 7531,
      "540": 7532,
      "5310": 7533,
      "556": 7534,
      "531": 7535,
      "553": 7536,
      "593": 7537,
      "5187": 7538,
      "5243": 7539,
      "5190": 7540,
      "5250": 7541,
      "5197": 7542,
      "5270": 7543,
      "5159": 7544,
      "5148": 7545,
      "5273": 7546,
      "5366": 7547,
      "5368": 7548,
      "610": 7549,
      "612": 7550,
      "614": 7551,
      "619": 7552,
      "627": 7553,
      "626": 7554,
      "621": 7555,
      "6415": 7556,
      "634": 7557,
      "636": 7558,
      "657": 7559,
      "685": 7560,
      "660": 7561,
      "693": 7562,
      "672": 7563,
      "6161": 7564,
      "6197": 7565,
      "6270": 7566,
      "6176": 7567,
      "6994": 7568,
      "6266": 7569,
      "6805": 7570,
      "710": 7571,
      "711": 7572,
      "713": 7573,
      "714": 7574,
      "799": 7575,
      "725": 7576,
      "728": 7577,
      "730": 7578,
      "750": 7579,
      "756": 7580,
      "739": 7581,
      "731": 7582,
      "742": 7583,
      "757": 7584,
      "744": 7585,
      "764": 7586,
      "747": 7587,
      "743": 7588,
      "755": 7589,
      "781": 7590,
      "766": 7591,
      "783": 7592,
      "746": 7593,
      "761": 7594,
      "767": 7595,
      "773": 7596,
      "7150": 7597,
      "7185": 7598,
      "7176": 7599,
      "7196": 7600,
      "7233": 7601,
      "7347": 7602,
      "815": 7603,
      "816": 7604,
      "819": 7605,
      "899": 7606,
      "827": 7607,
      "8415": 7608,
      "834": 7609,
      "870": 7610,
      "853": 7611,
      "844": 7612,
      "854": 7613,
      "848": 7614,
      "890": 7615,
      "860": 7616,
      "872": 7617,
      "865": 7618,
      "846": 7619,
      "873": 7620,
      "8135": 7621,
      "8140": 7622,
      "8168": 7623,
      "8250": 7624,
      "8129": 7625,
      "8648": 7626,
      "8476": 7627,
      "8368": 7628,
      "913": 7629,
      "927": 7630,
      "9000": 7631,
      "928": 7632,
      "9123": 7633,
      "940": 7634,
      "939": 7635,
      "937": 7636,
      "933": 7637,
      "942": 7638,
      "944": 7639,
      "964": 7640,
      "968": 7641,
      "951": 7642,
      "9486": 7643,
      "9560": 7644,
      "9168": 7645,
      "9507": 7646,
      "9404": 7647,
      "9396": 7648,
      "9342": 7649,
      "Addis": 7650,
      "Berlin": 7651,
      "Brasilia": 7652,
      "Bengali": 7653,
      "Birr": 7654,
      "Cairo": 7655,
      "Cedi": 7656,
      "Colombia": 7657,
      "Filipino": 7658,
      "Hebrew": 7659,
      "Hindi": 7660,
      "Handball": 7661,
      "Iraq": 7662,
      "King": 7663,
      "Kyiv": 7664,
      "Lira": 7665,
      "London": 7666,
      "Lima": 7667,
      "Lacrosse": 7668,
      "Moscow": 7669,
      "Nigeria": 7670,
      "Pretoria": 7671,
      "Rand": 7672,
      "Rial": 7673,
      "Real": 7674,
      "Rabat": 7675,
      "Shekel": 7676,
      "Sucre": 7677,
      "Taka": 7678,
      "Tokyo": 7679,
      "Vienna": 7680,
      "Won": 7681,
      "Was": 7682,
      "Yuan": 7683,
      "Ġ499": 7684,
      "Ġ433": 7685,
      "Ġ537": 7686,
      "Ġ531": 7687,
      "Ġ614": 7688,
      "Ġ657": 7689,
      "Ġ811": 7690,
      "Ġ827": 7691,
      "Ġ715": 7692,
      "Ġ723": 7693,
      "Ġ734": 7694,
      "Ġ737": 7695,
      "Ġ757": 7696,
      "Ġ793": 7697,
      "Ġ794": 7698,
      "Ġ915": 7699,
      "Ġ913": 7700,
      "Ġ927": 7701,
      "Ġ926": 7702,
      "Ġ938": 7703,
      "Ġ935": 7704,
      "Ġ970": 7705,
      "Ġ1029": 7706,
      "Ġ1028": 7707,
      "Ġ1032": 7708,
      "Ġ1036": 7709,
      "Ġ1056": 7710,
      "Ġ1064": 7711,
      "Ġ1060": 7712,
      "Ġ1076": 7713,
      "Ġ1132": 7714,
      "Ġ1151": 7715,
      "Ġ1195": 7716,
      "Ġ1146": 7717,
      "Ġ1173": 7718,
      "Ġ1280": 7719,
      "Ġ1288": 7720,
      "1029": 7721,
      "1038": 7722,
      "1035": 7723,
      "1070": 7724,
      "10640": 7725,
      "10735": 7726,
      "10988": 7727,
      "Stockholm": 7728,
      "2015": 7729,
      "2024": 7730,
      "2038": 7731,
      "2035": 7732,
      "2080": 7733,
      "2044": 7734,
      "2043": 7735,
      "2095": 7736,
      "2041": 7737,
      "2084": 7738,
      "2097": 7739,
      "206445": 7740,
      "127": 7741,
      "1229": 7742,
      "1255": 7743,
      "1245": 7744,
      "1293": 7745,
      "1246": 7746,
      "1267": 7747,
      "1259": 7748,
      "1279": 7749,
      "Ġ167": 7750,
      "Ġ1654": 7751,
      "Ġ1555": 7752,
      "Ġ1551": 7753,
      "Ġ1552": 7754,
      "Ġ1587": 7755,
      "113": 7756,
      "118": 7757,
      "1136": 7758,
      "1145": 7759,
      "11758": 7760,
      "11571": 7761,
      "Ġ1481": 7762,
      "Ġ1408": 7763,
      "Ġ1401": 7764,
      "Ġ1319": 7765,
      "Ġ1363": 7766,
      "Ġ181": 7767,
      "Ġ1924": 7768,
      "Ġ1932": 7769,
      "Ġ1971": 7770,
      "0028": 7771,
      "0058": 7772,
      "0042": 7773,
      "151": 7774,
      "15310": 7775,
      "1550": 7776,
      "1539": 7777,
      "1553": 7778,
      "1545": 7779,
      "1586": 7780,
      "1584": 7781,
      "1578": 7782,
      "Ġ178": 7783,
      "Ġ2016": 7784,
      "Ġ303": 7785,
      "Ġ3032": 7786,
      "Ġ2556": 7787,
      "Ġ281": 7788,
      "Ġ2862": 7789,
      "1330": 7790,
      "1340": 7791,
      "1363": 7792,
      "1368": 7793,
      "1372": 7794,
      "1375": 7795,
      "1398": 7796,
      "1384": 7797,
      "1373": 7798,
      "1377": 7799,
      "1378": 7800,
      "13926": 7801,
      "13730": 7802,
      "131145": 7803,
      "163": 7804,
      "164": 7805,
      "169": 7806,
      "1624": 7807,
      "1642": 7808,
      "1664": 7809,
      "1695": 7810,
      "1688": 7811,
      "1606": 7812,
      "16696": 7813,
      "161378": 7814,
      "143": 7815,
      "1424": 7816,
      "1434": 7817,
      "1433": 7818,
      "1453": 7819,
      "1408": 7820,
      "1469": 7821,
      "172": 7822,
      "179": 7823,
      "1727": 7824,
      "1722": 7825,
      "1756": 7826,
      "1739": 7827,
      "1733": 7828,
      "1790": 7829,
      "1793": 7830,
      "1783": 7831,
      "1788": 7832,
      "1798": 7833,
      "1761": 7834,
      "1773": 7835,
      "17250": 7836,
      "17224": 7837,
      "175368": 7838,
      "Ġ2724": 7839,
      "Ġ2778": 7840,
      "191": 7841,
      "194": 7842,
      "1935": 7843,
      "1942": 7844,
      "1954": 7845,
      "1996": 7846,
      "1949": 7847,
      "1977": 7848,
      "19558": 7849,
      "195288": 7850,
      "19825": 7851,
      "193009": 7852,
      "198648": 7853,
      "Ġ227": 7854,
      "Ġ2212": 7855,
      "184": 7856,
      "186": 7857,
      "1855": 7858,
      "1895": 7859,
      "1808": 7860,
      "1867": 7861,
      "181363": 7862,
      "993": 7863,
      "9924": 7864,
      "9948": 7865,
      "9908": 7866,
      "9906": 7867,
      "9989": 7868,
      "99600": 7869,
      "99768": 7870,
      "99758": 7871,
      "Ġ2365": 7872,
      "Ġ262": 7873,
      "Ġ263": 7874,
      "Ġ269": 7875,
      "Ġ367": 7876,
      "Ġ298": 7877,
      "Ġ382": 7878,
      "Ġ389": 7879,
      "Ġ3810": 7880,
      "Ġ322": 7881,
      "Ġ326": 7882,
      "Ġ3264": 7883,
      "2522": 7884,
      "2539": 7885,
      "2587": 7886,
      "25158": 7887,
      "Ġ482": 7888,
      "Ġ344": 7889,
      "Ġ347": 7890,
      "291": 7891,
      "293": 7892,
      "297": 7893,
      "2953": 7894,
      "2954": 7895,
      "2946": 7896,
      "2901": 7897,
      "2973": 7898,
      "291793": 7899,
      "Ġ5076": 7900,
      "241": 7901,
      "244": 7902,
      "245": 7903,
      "2423": 7904,
      "2434": 7905,
      "2470": 7906,
      "2457": 7907,
      "2445": 7908,
      "2497": 7909,
      "24726": 7910,
      "248129": 7911,
      "249486": 7912,
      "2770": 7913,
      "2764": 7914,
      "2766": 7915,
      "2775": 7916,
      "2746": 7917,
      "2708": 7918,
      "2774": 7919,
      "27986": 7920,
      "271293": 7921,
      "271550": 7922,
      "Ġ371": 7923,
      "Ġ379": 7924,
      "Ġ3732": 7925,
      "Ġ3595": 7926,
      "Ġ331": 7927,
      "Ġ3375": 7928,
      "231": 7929,
      "235": 7930,
      "2380": 7931,
      "2375": 7932,
      "2349": 7933,
      "2376": 7934,
      "285": 7935,
      "2815": 7936,
      "2826": 7937,
      "28310": 7938,
      "2843": 7939,
      "2866": 7940,
      "2875": 7941,
      "2887": 7942,
      "2874": 7943,
      "286161": 7944,
      "12370": 7945,
      "123203": 7946,
      "267": 7947,
      "268": 7948,
      "2635": 7949,
      "2658": 7950,
      "2647": 7951,
      "2683": 7952,
      "2646": 7953,
      "2608": 7954,
      "2652": 7955,
      "1004": 7956,
      "520095": 7957,
      "3027": 7958,
      "3030": 7959,
      "3090": 7960,
      "3095": 7961,
      "3086": 7962,
      "3049": 7963,
      "30600": 7964,
      "30986": 7965,
      "302424": 7966,
      "30191": 7967,
      "Ġ397": 7968,
      "Ġ3980": 7969,
      "221": 7970,
      "2226": 7971,
      "22240": 7972,
      "222196": 7973,
      "9995": 7974,
      "4034": 7975,
      "4037": 7976,
      "4058": 7977,
      "4045": 7978,
      "4094": 7979,
      "40629": 7980,
      "40835": 7981,
      "3109": 7982,
      "Argentina": 7983,
      "415994": 7984,
      "415098": 7985,
      "Quetzal": 7986,
      "Ġ4566": 7987,
      "Ġ4410": 7988,
      "Ġ4464": 7989,
      "Ġ1002": 7990,
      "Ġ1006": 7991,
      "Ġ1007": 7992,
      "Ġ1009": 7993,
      "Ġ549": 7994,
      "Ġ467": 7995,
      "Ġ997": 7996,
      "3421": 7997,
      "3450": 7998,
      "3456": 7999,
      "3470": 8000,
      "3444": 8001,
      "3447": 8002,
      "3460": 8003,
      "3472": 8004,
      "3478": 8005,
      "34924": 8006,
      "340042": 8007,
      "342746": 8008,
      "342658": 8009,
      "502": 8010,
      "506": 8011,
      "5012": 8012,
      "5080": 8013,
      "5057": 8014,
      "5047": 8015,
      "5096": 8016,
      "5066": 8017,
      "5086": 8018,
      "5049": 8019,
      "5084": 8020,
      "508200": 8021,
      "50597": 8022,
      "50440": 8023,
      "50897": 8024,
      "505012": 8025,
      "386": 8026,
      "3854": 8027,
      "3887": 8028,
      "3878": 8029,
      "382843": 8030,
      "385084": 8031,
      "354": 8032,
      "357": 8033,
      "3516": 8034,
      "35765": 8035,
      "35936": 8036,
      "Ġ607": 8037,
      "3618": 8038,
      "3670": 8039,
      "3655": 8040,
      "3662": 8041,
      "3609": 8042,
      "36868": 8043,
      "365786": 8044,
      "365607": 8045,
      "360995": 8046,
      "369342": 8047,
      "361279": 8048,
      "365066": 8049,
      "Ġ645": 8050,
      "562": 8051,
      "563": 8052,
      "5631": 8053,
      "5657": 8054,
      "5669": 8055,
      "5659": 8056,
      "56223": 8057,
      "56835": 8058,
      "564603": 8059,
      "561375": 8060,
      "Ġ5706": 8061,
      "Ġ557": 8062,
      "395": 8063,
      "3931": 8064,
      "3964": 8065,
      "3967": 8066,
      "39242": 8067,
      "3909": 8068,
      "39086": 8069,
      "391229": 8070,
      "Ġ781": 8071,
      "Ġ788": 8072,
      "Ġ789": 8073,
      "Ġ7872": 8074,
      "371": 8075,
      "375": 8076,
      "3765": 8077,
      "379948": 8078,
      "372457": 8079,
      "372226": 8080,
      "373964": 8081,
      "3327": 8082,
      "330058": 8083,
      "Ġ909": 8084,
      "Ġ667": 8085,
      "Ġ6687": 8086,
      "Ġ709": 8087,
      "Ankara": 8088,
      "Ġ968": 8089,
      "Ġ969": 8090,
      "581": 8091,
      "5870": 8092,
      "5844": 8093,
      "5885": 8094,
      "5888": 8095,
      "5806": 8096,
      "58570": 8097,
      "58743": 8098,
      "582866": 8099,
      "583421": 8100,
      "Ġ471": 8101,
      "Ġ474": 8102,
      "Ġ4734": 8103,
      "7031": 8104,
      "7057": 8105,
      "70437": 8106,
      "802": 8107,
      "8092": 8108,
      "8049": 8109,
      "8052": 8110,
      "80319": 8111,
      "Ġ1448": 8112,
      "574": 8113,
      "575": 8114,
      "576": 8115,
      "578": 8116,
      "5726": 8117,
      "5747": 8118,
      "5795": 8119,
      "57615": 8120,
      "571808": 8121,
      "571004": 8122,
      "57575": 8123,
      "532775": 8124,
      "Ġ943": 8125,
      "Ġ692": 8126,
      "Ġ590": 8127,
      "4468": 8128,
      "4441": 8129,
      "4446": 8130,
      "44796": 8131,
      "44245": 8132,
      "442635": 8133,
      "445086": 8134,
      "447057": 8135,
      "Ġ683": 8136,
      "Ġ689": 8137,
      "641": 8138,
      "6497": 8139,
      "6474": 8140,
      "64840": 8141,
      "645366": 8142,
      "640028": 8143,
      "642423": 8144,
      "642826": 8145,
      "643516": 8146,
      "Ġ879": 8147,
      "545": 8148,
      "5450": 8149,
      "5460": 8150,
      "5498": 8151,
      "54140": 8152,
      "54837": 8153,
      "54954": 8154,
      "543223": 8155,
      "548476": 8156,
      "Ġ674": 8157,
      "Ġ883": 8158,
      "Ġ889": 8159,
      "Ġ763": 8160,
      "Ġ767": 8161,
      "481": 8162,
      "482": 8163,
      "4858": 8164,
      "4885": 8165,
      "4890": 8166,
      "48930": 8167,
      "48948": 8168,
      "483116": 8169,
      "Ġ755": 8170,
      "471": 8171,
      "4750": 8172,
      "4769": 8173,
      "471983": 8174,
      "475631": 8175,
      "8533": 8176,
      "853027": 8177,
      "853878": 8178,
      "907": 8179,
      "9096": 8180,
      "9065": 8181,
      "90964": 8182,
      "908052": 8183,
      "Ġ655": 8184,
      "439989": 8185,
      "432522": 8186,
      "609": 8187,
      "6031": 8188,
      "6066": 8189,
      "60930": 8190,
      "60758": 8191
    },
    "merges": [
      [
        "Ġ",
        "Ġ"
      ],
      [
        "Ġ",
        "t"
      ],
      [
        "Ġ",
        "a"
      ],
      [
        "e",
        "r"
      ],
      [
        "i",
        "n"
      ],
      [
        "h",
        "e"
      ],
      [
        "r",
        "e"
      ],
      [
        "i",
        "s"
      ],
      [
        "Ġt",
        "he"
      ],
      [
        "Ġ",
        "s"
      ],
      [
        "o",
        "n"
      ],
      [
        "Ġ",
        "="
      ],
      [
        "Ċ",
        "ĠĠ"
      ],
      [
        "a",
        "l"
      ],
      [
        "Ġ",
        "c"
      ],
      [
        "o",
        "r"
      ],
      [
        "Ġ",
        "f"
      ],
      [
        "a",
        "n"
      ],
      [
        "a",
        "t"
      ],
      [
        "e",
        "s"
      ],
      [
        "ĊĠĠ",
        "Ġ"
      ],
      [
        "Ġ",
        "p"
      ],
      [
        "e",
        "n"
      ],
      [
        "o",
        "u"
      ],
      [
        "Ġ",
        "1"
      ],
      [
        "i",
        "t"
      ],
      [
        "Ġ",
        "d"
      ],
      [
        "Ġ",
        "("
      ],
      [
        "Ġ",
        "â"
      ],
      [
        "Ġ",
        "-"
      ],
      [
        "Ġ",
        "l"
      ],
      [
        "c",
        "t"
      ],
      [
        "a",
        "s"
      ],
      [
        "Ġa",
        "n"
      ],
      [
        "Ġ",
        "x"
      ],
      [
        "in",
        "g"
      ],
      [
        "r",
        "o"
      ],
      [
        "Ġ",
        "re"
      ],
      [
        "Ġ",
        "is"
      ],
      [
        "u",
        "s"
      ],
      [
        "o",
        "t"
      ],
      [
        "e",
        "d"
      ],
      [
        "Ġ",
        "w"
      ],
      [
        "Ġ",
        "2"
      ],
      [
        "u",
        "m"
      ],
      [
        "Ġ",
        "in"
      ],
      [
        "Ġ",
        "b"
      ],
      [
        "Ġ",
        "o"
      ],
      [
        "<",
        "|"
      ],
      [
        "|",
        ">"
      ],
      [
        "a",
        "r"
      ],
      [
        "Ġ",
        "m"
      ],
      [
        "Ġ",
        "n"
      ],
      [
        "i",
        "on"
      ],
      [
        "Ġ",
        "r"
      ],
      [
        "l",
        "e"
      ],
      [
        "Ġo",
        "f"
      ],
      [
        "is",
        "t"
      ],
      [
        ">",
        ">"
      ],
      [
        "Ġan",
        "d"
      ],
      [
        "o",
        "l"
      ],
      [
        "a",
        "ct"
      ],
      [
        "Ċ",
        "Ġ"
      ],
      [
        "`",
        "`"
      ],
      [
        "Ġ",
        "g"
      ],
      [
        "ĠĠ",
        "ĠĠ"
      ],
      [
        "e",
        "l"
      ],
      [
        "Ġ",
        "'"
      ],
      [
        "o",
        "m"
      ],
      [
        "Ġ",
        "h"
      ],
      [
        "Ġ",
        "3"
      ],
      [
        "Ġâ",
        "Ĩ"
      ],
      [
        "as",
        "s"
      ],
      [
        "t",
        "h"
      ],
      [
        "Ġ",
        "I"
      ],
      [
        "Ġ",
        "["
      ],
      [
        "i",
        "c"
      ],
      [
        "i",
        "d"
      ],
      [
        "\"",
        "\""
      ],
      [
        "n",
        "t"
      ],
      [
        "Ġâ",
        "Ī"
      ],
      [
        "an",
        "t"
      ],
      [
        "Ġ",
        "4"
      ],
      [
        "s",
        "t"
      ],
      [
        "Ġf",
        "or"
      ],
      [
        "Ġ",
        "A"
      ],
      [
        "u",
        "r"
      ],
      [
        "Ġ",
        "T"
      ],
      [
        "o",
        "d"
      ],
      [
        "or",
        "d"
      ],
      [
        "Ġ",
        "e"
      ],
      [
        "u",
        "l"
      ],
      [
        "Ġ",
        "q"
      ],
      [
        "o",
        "w"
      ],
      [
        "s",
        "s"
      ],
      [
        "o",
        "g"
      ],
      [
        "a",
        "p"
      ],
      [
        "a",
        "d"
      ],
      [
        "Ġ",
        "y"
      ],
      [
        "Ġt",
        "o"
      ],
      [
        "us",
        "er"
      ],
      [
        "ist",
        "ant"
      ],
      [
        "ass",
        "istant"
      ],
      [
        "Ġy",
        "ou"
      ],
      [
        "ĠâĨ",
        "Ĵ"
      ],
      [
        "ro",
        "m"
      ],
      [
        "u",
        "n"
      ],
      [
        "en",
        "t"
      ],
      [
        "Ġ-",
        "-"
      ],
      [
        "Ġ",
        "E"
      ],
      [
        "Ġ",
        "+"
      ],
      [
        "Ġs",
        "t"
      ],
      [
        "i",
        "v"
      ],
      [
        "Ġ",
        "F"
      ],
      [
        "ot",
        "al"
      ],
      [
        "s",
        "e"
      ],
      [
        "l",
        "l"
      ],
      [
        "i",
        "g"
      ],
      [
        "u",
        "t"
      ],
      [
        "e",
        "t"
      ],
      [
        "Ġf",
        "act"
      ],
      [
        "a",
        "y"
      ],
      [
        "ĊĠĠ",
        "ĠĠĠĠ"
      ],
      [
        "c",
        "e"
      ],
      [
        "Ġ",
        "it"
      ],
      [
        "ĠâĪ",
        "§"
      ],
      [
        "Ġ",
        ">>"
      ],
      [
        "Ġ>>",
        ">"
      ],
      [
        "a",
        "m"
      ],
      [
        ")",
        ":"
      ],
      [
        "es",
        "t"
      ],
      [
        "u",
        "p"
      ],
      [
        "l",
        "y"
      ],
      [
        "Ġ",
        "5"
      ],
      [
        "e",
        "p"
      ],
      [
        "Ġ",
        "6"
      ],
      [
        "Ġt",
        "h"
      ],
      [
        "``",
        "`"
      ],
      [
        "Ġ",
        "0"
      ],
      [
        "om",
        "p"
      ],
      [
        "e",
        "g"
      ],
      [
        "in",
        "e"
      ],
      [
        "Ġ",
        "k"
      ],
      [
        "i",
        "r"
      ],
      [
        "at",
        "e"
      ],
      [
        "Ġre",
        "s"
      ],
      [
        "u",
        "e"
      ],
      [
        "a",
        "c"
      ],
      [
        "v",
        "er"
      ],
      [
        "Ġ",
        "C"
      ],
      [
        "ur",
        "n"
      ],
      [
        "at",
        "ion"
      ],
      [
        "Ġf",
        "rom"
      ],
      [
        "e",
        "f"
      ],
      [
        "Ġ",
        "S"
      ],
      [
        "Ġa",
        "ss"
      ],
      [
        "s",
        "er"
      ],
      [
        "Ġ",
        "P"
      ],
      [
        "Ġ",
        "B"
      ],
      [
        "t",
        "urn"
      ],
      [
        "h",
        "t"
      ],
      [
        "Ġ",
        "8"
      ],
      [
        "Ġ",
        "\"\""
      ],
      [
        "Ġ\"\"",
        "\""
      ],
      [
        "re",
        "m"
      ],
      [
        "Ġb",
        "y"
      ],
      [
        "it",
        "h"
      ],
      [
        "i",
        "m"
      ],
      [
        "Ġre",
        "turn"
      ],
      [
        "rem",
        "is"
      ],
      [
        "ĊĠĠĠĠĠĠ",
        "Ġ"
      ],
      [
        "I",
        "nt"
      ],
      [
        "Ġm",
        "od"
      ],
      [
        "Ġl",
        "eg"
      ],
      [
        "Ġc",
        "on"
      ],
      [
        "Ġ",
        "on"
      ],
      [
        "Ġ",
        "/"
      ],
      [
        "Ġh",
        "as"
      ],
      [
        "'",
        "s"
      ],
      [
        "Â",
        "¬"
      ],
      [
        "Ġleg",
        "s"
      ],
      [
        "Ġ",
        "7"
      ],
      [
        "ser",
        "v"
      ],
      [
        "Ġp",
        "l"
      ],
      [
        "n",
        "ow"
      ],
      [
        "Ġ",
        "|"
      ],
      [
        "ul",
        "t"
      ],
      [
        "Ġres",
        "ult"
      ],
      [
        "el",
        "f"
      ],
      [
        "ou",
        "nt"
      ],
      [
        "o",
        "k"
      ],
      [
        "Ġ",
        "9"
      ],
      [
        "v",
        "al"
      ],
      [
        "Ġt",
        "r"
      ],
      [
        "a",
        "b"
      ],
      [
        "an",
        "d"
      ],
      [
        "w",
        "er"
      ],
      [
        "n",
        "d"
      ],
      [
        "q",
        "u"
      ],
      [
        "p",
        "l"
      ],
      [
        "'",
        "ll"
      ],
      [
        "b",
        "serv"
      ],
      [
        "s",
        "wer"
      ],
      [
        "Ġan",
        "swer"
      ],
      [
        "omp",
        "ut"
      ],
      [
        "Ġs",
        "um"
      ],
      [
        "Ġn",
        "ot"
      ],
      [
        "t",
        "otal"
      ],
      [
        "Ġd",
        "ay"
      ],
      [
        "a",
        "g"
      ],
      [
        "h",
        "ou"
      ],
      [
        "er",
        "s"
      ],
      [
        "e",
        "ad"
      ],
      [
        "Ġ",
        "Â¬"
      ],
      [
        "Ċ",
        "ĊĠĠĠ"
      ],
      [
        "i",
        "f"
      ],
      [
        "F",
        "in"
      ],
      [
        "e",
        "og"
      ],
      [
        "r",
        "ap"
      ],
      [
        "eog",
        "rap"
      ],
      [
        "eograp",
        "h"
      ],
      [
        "u",
        "ct"
      ],
      [
        "e",
        "c"
      ],
      [
        "Ġass",
        "um"
      ],
      [
        "an",
        "g"
      ],
      [
        "Ġp",
        "ro"
      ],
      [
        "Ġt",
        "otal"
      ],
      [
        "Ġw",
        "ith"
      ],
      [
        "Ġk",
        "now"
      ],
      [
        "Ġ",
        "un"
      ],
      [
        "o",
        "ok"
      ],
      [
        "F",
        "act"
      ],
      [
        "remis",
        "e"
      ],
      [
        "Ġ1",
        "0"
      ],
      [
        "i",
        "ol"
      ],
      [
        "p",
        "y"
      ],
      [
        "v",
        "e"
      ],
      [
        "Fin",
        "al"
      ],
      [
        "iol",
        "og"
      ],
      [
        "Ġ",
        "us"
      ],
      [
        "'",
        ","
      ],
      [
        "Ġw",
        "h"
      ],
      [
        "ook",
        "up"
      ],
      [
        "ĠT",
        "he"
      ],
      [
        "or",
        "t"
      ],
      [
        "en",
        "d"
      ],
      [
        "Ġl",
        "ine"
      ],
      [
        "um",
        "s"
      ],
      [
        "th",
        "on"
      ],
      [
        "en",
        "g"
      ],
      [
        "a",
        "re"
      ],
      [
        "Ġ",
        "D"
      ],
      [
        "Ġ",
        "{"
      ],
      [
        "i",
        "es"
      ],
      [
        "g",
        "ht"
      ],
      [
        "B",
        "iolog"
      ],
      [
        "k",
        "e"
      ],
      [
        "py",
        "thon"
      ],
      [
        "Ġg",
        "eograph"
      ],
      [
        "Biolog",
        "y"
      ],
      [
        "Ġgeograph",
        "y"
      ],
      [
        "ord",
        "er"
      ],
      [
        "h",
        "er"
      ],
      [
        "N",
        "ot"
      ],
      [
        "Not",
        "e"
      ],
      [
        "er",
        "m"
      ],
      [
        "Ġ",
        "he"
      ],
      [
        "er",
        "est"
      ],
      [
        "as",
        "e"
      ],
      [
        "Int",
        "erest"
      ],
      [
        "Interest",
        "ing"
      ],
      [
        "D",
        "id"
      ],
      [
        "O",
        "bserv"
      ],
      [
        "T",
        "hou"
      ],
      [
        "Observ",
        "ation"
      ],
      [
        "Thou",
        "ght"
      ],
      [
        "uct",
        "ion"
      ],
      [
        "Ġa",
        "s"
      ],
      [
        "Ġ(",
        "("
      ],
      [
        "m",
        "ent"
      ],
      [
        "it",
        "e"
      ],
      [
        "u",
        "es"
      ],
      [
        "x",
        "am"
      ],
      [
        ")",
        ")"
      ],
      [
        "eng",
        "th"
      ],
      [
        ")",
        "."
      ],
      [
        "]",
        ")"
      ],
      [
        "Ġ",
        "order"
      ],
      [
        "Ġa",
        "re"
      ],
      [
        "c",
        "ord"
      ],
      [
        "(",
        "'"
      ],
      [
        "ĠâĨ",
        "Ķ"
      ],
      [
        "ĠâĪ",
        "¨"
      ],
      [
        "i",
        "a"
      ],
      [
        "a",
        "in"
      ],
      [
        "al",
        "l"
      ],
      [
        "=",
        ">"
      ],
      [
        "Ġn",
        "e"
      ],
      [
        "Ġd",
        "o"
      ],
      [
        "Ġfor",
        "m"
      ],
      [
        "'",
        ")"
      ],
      [
        "pl",
        "es"
      ],
      [
        "xam",
        "ples"
      ],
      [
        "o",
        "f"
      ],
      [
        "i",
        "l"
      ],
      [
        "ĠE",
        "xamples"
      ],
      [
        "ir",
        "st"
      ],
      [
        "c",
        "h"
      ],
      [
        "Ġl",
        "ookup"
      ],
      [
        "Ġt",
        "erm"
      ],
      [
        "val",
        "ues"
      ],
      [
        "it",
        "al"
      ],
      [
        "ou",
        "t"
      ],
      [
        "ac",
        "h"
      ],
      [
        "s",
        "elf"
      ],
      [
        "Ġ1",
        "1"
      ],
      [
        "en",
        "ce"
      ],
      [
        "r",
        "i"
      ],
      [
        "ver",
        "y"
      ],
      [
        "ap",
        "ital"
      ],
      [
        "om",
        "e"
      ],
      [
        "Ġst",
        "ep"
      ],
      [
        "p",
        "t"
      ],
      [
        "Ġit",
        "s"
      ],
      [
        "omput",
        "e"
      ],
      [
        "Ġg",
        "o"
      ],
      [
        "Ġ",
        "M"
      ],
      [
        "Ġc",
        "apital"
      ],
      [
        "re",
        "ss"
      ],
      [
        "Ġc",
        "h"
      ],
      [
        "Ġform",
        "ul"
      ],
      [
        "Ġc",
        "ol"
      ],
      [
        "ar",
        "t"
      ],
      [
        "Ġth",
        "at"
      ],
      [
        "p",
        "e"
      ],
      [
        "P",
        "remise"
      ],
      [
        "Ġin",
        "st"
      ],
      [
        "d",
        "er"
      ],
      [
        "l",
        "ine"
      ],
      [
        "Ġ",
        "N"
      ],
      [
        "d",
        "ef"
      ],
      [
        "'",
        "t"
      ],
      [
        "ar",
        "d"
      ],
      [
        "ead",
        "line"
      ],
      [
        "d",
        "uction"
      ],
      [
        "ro",
        "duction"
      ],
      [
        "ĠĠĠĠ",
        "Ġ"
      ],
      [
        "Ġh",
        "a"
      ],
      [
        "c",
        "k"
      ],
      [
        "ig",
        "n"
      ],
      [
        "an",
        "ce"
      ],
      [
        "Ġto",
        "ol"
      ],
      [
        "'",
        "]"
      ],
      [
        "Ġs",
        "c"
      ],
      [
        ")",
        "="
      ],
      [
        "Ġw",
        "ord"
      ],
      [
        "at",
        "us"
      ],
      [
        "Ġst",
        "atus"
      ],
      [
        "ro",
        "w"
      ],
      [
        "g",
        "ress"
      ],
      [
        "Ġ",
        "*"
      ],
      [
        "Ġ",
        "Q"
      ],
      [
        "Ģ",
        "Ķ"
      ],
      [
        "Ġâ",
        "ĢĶ"
      ],
      [
        "Ġassum",
        "e"
      ],
      [
        "ĊĠĠĠĠĠĠ",
        "ĠĠĠĠĠ"
      ],
      [
        "c",
        "l"
      ],
      [
        "Ġ1",
        "2"
      ],
      [
        "Ġ",
        "up"
      ],
      [
        "(",
        "["
      ],
      [
        "Ġ-",
        ">"
      ],
      [
        "es",
        "s"
      ],
      [
        "ag",
        "e"
      ],
      [
        "f",
        "er"
      ],
      [
        "Ġl",
        "ist"
      ],
      [
        "Ġa",
        "r"
      ],
      [
        "ac",
        "k"
      ],
      [
        "T",
        "he"
      ],
      [
        "c",
        "y"
      ],
      [
        "al",
        "ly"
      ],
      [
        "ic",
        "ally"
      ],
      [
        "ength",
        "s"
      ],
      [
        "ig",
        "ht"
      ],
      [
        "Ġformul",
        "a"
      ],
      [
        "is",
        "h"
      ],
      [
        "Ġs",
        "o"
      ],
      [
        "Ġ",
        "if"
      ],
      [
        "Ġm",
        "e"
      ],
      [
        "e",
        "y"
      ],
      [
        "Ġe",
        "x"
      ],
      [
        "Ġa",
        "b"
      ],
      [
        "iv",
        "e"
      ],
      [
        "Ġq",
        "u"
      ],
      [
        "Ġ",
        "G"
      ],
      [
        "Ġe",
        "very"
      ],
      [
        "Ġs",
        "e"
      ],
      [
        "i",
        "al"
      ],
      [
        "Ġc",
        "an"
      ],
      [
        "b",
        "le"
      ],
      [
        "i",
        "le"
      ],
      [
        "id",
        "e"
      ],
      [
        "Ġs",
        "elf"
      ],
      [
        "Int",
        "roduction"
      ],
      [
        "Ġr",
        "un"
      ],
      [
        "1",
        "0"
      ],
      [
        "n",
        "ums"
      ],
      [
        "Ġ",
        "U"
      ],
      [
        "Ġ",
        "L"
      ],
      [
        "Ġr",
        "at"
      ],
      [
        "Ġc",
        "od"
      ],
      [
        "Ġcod",
        "e"
      ],
      [
        "ot",
        "h"
      ],
      [
        "re",
        "n"
      ],
      [
        "Ġs",
        "p"
      ],
      [
        "he",
        "ck"
      ],
      [
        "Ġ",
        "i"
      ],
      [
        "r",
        "a"
      ],
      [
        "or",
        "k"
      ],
      [
        "r",
        "ou"
      ],
      [
        "er",
        "e"
      ],
      [
        "Ġd",
        "ef"
      ],
      [
        ".",
        "."
      ],
      [
        "A",
        "nd"
      ],
      [
        "l",
        "d"
      ],
      [
        "p",
        "ort"
      ],
      [
        "l",
        "p"
      ],
      [
        "Ġhe",
        "lp"
      ],
      [
        "pt",
        "ion"
      ],
      [
        "l",
        "and"
      ],
      [
        "i",
        "z"
      ],
      [
        "u",
        "b"
      ],
      [
        "al",
        "se"
      ],
      [
        "um",
        "n"
      ],
      [
        "Ġcol",
        "umn"
      ],
      [
        "Ġc",
        "l"
      ],
      [
        "al",
        "s"
      ],
      [
        "S",
        "t"
      ],
      [
        "at",
        "ed"
      ],
      [
        "Ġm",
        "a"
      ],
      [
        "Ġc",
        "ount"
      ],
      [
        "ou",
        "nd"
      ],
      [
        "Ġth",
        "an"
      ],
      [
        "r",
        "y"
      ],
      [
        "Ġrat",
        "her"
      ],
      [
        "Ġ",
        "v"
      ],
      [
        "e",
        "x"
      ],
      [
        "[",
        "'"
      ],
      [
        "ur",
        "ren"
      ],
      [
        "f",
        "rom"
      ],
      [
        "Ġus",
        "ing"
      ],
      [
        "Ġre",
        "cord"
      ],
      [
        "C",
        "ompute"
      ],
      [
        "n",
        "ing"
      ],
      [
        "Ġp",
        "o"
      ],
      [
        "Ġ",
        "W"
      ],
      [
        "Ġp",
        "i"
      ],
      [
        "Ġf",
        "irst"
      ],
      [
        "Ġpro",
        "of"
      ],
      [
        "Ġassum",
        "ption"
      ],
      [
        "Ġa",
        "l"
      ],
      [
        "in",
        "d"
      ],
      [
        "Ġw",
        "r"
      ],
      [
        "S",
        "ol"
      ],
      [
        "d",
        "eadline"
      ],
      [
        "Ġd",
        "ue"
      ],
      [
        "in",
        "t"
      ],
      [
        "Ġc",
        "o"
      ],
      [
        "t",
        "a"
      ],
      [
        "urren",
        "cy"
      ],
      [
        "um",
        "b"
      ],
      [
        "o",
        "re"
      ],
      [
        "Ġc",
        "omp"
      ],
      [
        "Ġd",
        "ep"
      ],
      [
        "Ġdep",
        "end"
      ],
      [
        "Ġha",
        "ve"
      ],
      [
        "a",
        "us"
      ],
      [
        "Ġun",
        "der"
      ],
      [
        "Ġb",
        "e"
      ],
      [
        "Ġp",
        "remis"
      ],
      [
        "Ġpremis",
        "es"
      ],
      [
        "fer",
        "ence"
      ],
      [
        "Ġs",
        "ome"
      ],
      [
        "h",
        "at"
      ],
      [
        "Ġs",
        "h"
      ],
      [
        "on",
        "e"
      ],
      [
        "Ġwh",
        "at"
      ],
      [
        "ct",
        "s"
      ],
      [
        "St",
        "ep"
      ],
      [
        "an",
        "s"
      ],
      [
        "Ġn",
        "umb"
      ],
      [
        "m",
        "a"
      ],
      [
        "2",
        "0"
      ],
      [
        "f",
        "t"
      ],
      [
        "Ġc",
        "urrency"
      ],
      [
        "f",
        "ic"
      ],
      [
        "u",
        "re"
      ],
      [
        "ar",
        "g"
      ],
      [
        "Ġg",
        "iv"
      ],
      [
        "Ġm",
        "y"
      ],
      [
        "r",
        "ic"
      ],
      [
        "Ġc",
        "ar"
      ],
      [
        "'",
        ":"
      ],
      [
        "on",
        "g"
      ],
      [
        "l",
        "ist"
      ],
      [
        "Ġre",
        "port"
      ],
      [
        "qu",
        "are"
      ],
      [
        "Ġa",
        "ll"
      ],
      [
        "Ġ",
        "R"
      ],
      [
        "Ġpl",
        "an"
      ],
      [
        "ĠE",
        "u"
      ],
      [
        "1",
        "2"
      ],
      [
        "as",
        "k"
      ],
      [
        "Ġab",
        "out"
      ],
      [
        "e",
        "w"
      ],
      [
        "Ġ",
        "ot"
      ],
      [
        "Ġot",
        "her"
      ],
      [
        "Ġe",
        "ach"
      ],
      [
        "m",
        "s"
      ],
      [
        "cl",
        "us"
      ],
      [
        "]",
        ","
      ],
      [
        "Ġ1",
        "6"
      ],
      [
        "Ġn",
        "ums"
      ],
      [
        "land",
        "s"
      ],
      [
        "p",
        "i"
      ],
      [
        "Ġ1",
        "5"
      ],
      [
        "ap",
        "p"
      ],
      [
        "Ġcl",
        "ass"
      ],
      [
        "Ġ",
        "Y"
      ],
      [
        "E",
        "S"
      ],
      [
        "ĠE",
        "N"
      ],
      [
        "ĠF",
        "R"
      ],
      [
        "clus",
        "ion"
      ],
      [
        "en",
        "s"
      ],
      [
        "i",
        "ll"
      ],
      [
        "it",
        "ion"
      ],
      [
        "Ġcon",
        "t"
      ],
      [
        "~",
        "="
      ],
      [
        "Ġ",
        "~="
      ],
      [
        "ic",
        "h"
      ],
      [
        "Ġwh",
        "ich"
      ],
      [
        "a",
        "ke"
      ],
      [
        "ĠEu",
        "ro"
      ],
      [
        "Ġt",
        "ask"
      ],
      [
        "ĠI",
        "n"
      ],
      [
        "Ġp",
        "re"
      ],
      [
        "re",
        "cord"
      ],
      [
        "rou",
        "p"
      ],
      [
        "Ġcar",
        "ry"
      ],
      [
        "Ġin",
        "se"
      ],
      [
        "Ġass",
        "ign"
      ],
      [
        "c",
        "c"
      ],
      [
        "f",
        "f"
      ],
      [
        "f",
        "ul"
      ],
      [
        "i",
        "ke"
      ],
      [
        "ount",
        "s"
      ],
      [
        "Ġinst",
        "ance"
      ],
      [
        "om",
        "m"
      ],
      [
        "1",
        "1"
      ],
      [
        "Ġa",
        "t"
      ],
      [
        "e",
        "le"
      ],
      [
        "Ġar",
        "r"
      ],
      [
        "Ġ1",
        "4"
      ],
      [
        "Ġ",
        "est"
      ],
      [
        "Ġtr",
        "ue"
      ],
      [
        "Ġr",
        "ight"
      ],
      [
        "Ġinst",
        "ead"
      ],
      [
        "Ġs",
        "m"
      ],
      [
        "Ġo",
        "ver"
      ],
      [
        "Ġ",
        "row"
      ],
      [
        "Ġr",
        "ang"
      ],
      [
        "ith",
        "m"
      ],
      [
        "Sol",
        "ve"
      ],
      [
        "Ġb",
        "oth"
      ],
      [
        "Ġn",
        "o"
      ],
      [
        "Ġf",
        "l"
      ],
      [
        "Ġ1",
        "3"
      ],
      [
        "Ġthe",
        "ir"
      ],
      [
        "u",
        "le"
      ],
      [
        "d",
        "ate"
      ],
      [
        "ĠF",
        "or"
      ],
      [
        "Ġb",
        "ut"
      ],
      [
        "Ġwr",
        "ite"
      ],
      [
        "Ġpl",
        "ay"
      ],
      [
        "ff",
        "e"
      ],
      [
        "i",
        "ent"
      ],
      [
        "Ġ",
        "V"
      ],
      [
        "le",
        "ase"
      ],
      [
        "u",
        "age"
      ],
      [
        "Ġcon",
        "clusion"
      ],
      [
        "ang",
        "uage"
      ],
      [
        "at",
        "ing"
      ],
      [
        "ol",
        "l"
      ],
      [
        "Ġsm",
        "all"
      ],
      [
        "Ġn",
        "ow"
      ],
      [
        "Ġyou",
        "r"
      ],
      [
        "Ġs",
        "quare"
      ],
      [
        "Ġf",
        "re"
      ],
      [
        "Ġon",
        "e"
      ],
      [
        "p",
        "le"
      ],
      [
        "app",
        "end"
      ],
      [
        "Ġ",
        "K"
      ],
      [
        "u",
        "g"
      ],
      [
        "Ġpl",
        "ant"
      ],
      [
        "Ġword",
        "s"
      ],
      [
        "Ġan",
        "im"
      ],
      [
        "Ġanim",
        "als"
      ],
      [
        "ed",
        "s"
      ],
      [
        "Ġ1",
        "8"
      ],
      [
        "Ġtask",
        "s"
      ],
      [
        "Ġ",
        "or"
      ],
      [
        "Ġ",
        "val"
      ],
      [
        "Ġpro",
        "gress"
      ],
      [
        "ment",
        "s"
      ],
      [
        "v",
        "i"
      ],
      [
        "Ġa",
        "p"
      ],
      [
        "N",
        "T"
      ],
      [
        "r",
        "ing"
      ],
      [
        "c",
        "i"
      ],
      [
        "Ġp",
        "ar"
      ],
      [
        "Ġw",
        "on"
      ],
      [
        "W",
        "hat"
      ],
      [
        "Ġl",
        "anguage"
      ],
      [
        "v",
        "el"
      ],
      [
        "s",
        "ia"
      ],
      [
        "l",
        "engths"
      ],
      [
        "Ġp",
        "remise"
      ],
      [
        "ou",
        "ble"
      ],
      [
        "Ġd",
        "ouble"
      ],
      [
        "Ġl",
        "engths"
      ],
      [
        "Ġo",
        "bserv"
      ],
      [
        "Ġ[",
        "'"
      ],
      [
        "Ġobserv",
        "ed"
      ],
      [
        "p",
        "are"
      ],
      [
        "'",
        "m"
      ],
      [
        "Ġ1",
        "9"
      ],
      [
        "ra",
        "ft"
      ],
      [
        "Ġch",
        "ar"
      ],
      [
        "at",
        "s"
      ],
      [
        "Ġthe",
        "m"
      ],
      [
        "us",
        "t"
      ],
      [
        "0",
        "0"
      ],
      [
        "Ġthe",
        "se"
      ],
      [
        "og",
        "s"
      ],
      [
        "Ġc",
        "omm"
      ],
      [
        "Ġd",
        "iv"
      ],
      [
        "Ġne",
        "w"
      ],
      [
        "Ġf",
        "alse"
      ],
      [
        "Ġare",
        "a"
      ],
      [
        "1",
[...]
